node {
  name: "tensors/component_0"
  op: "Const"
  attr {
    key: "dtype"
    value {
      type: DT_INT32
    }
  }
  attr {
    key: "value"
    value {
      tensor {
        dtype: DT_INT32
        tensor_shape {
          dim {
            size: 22446
          }
        }
        tensor_content: "\003\000\000\000\004\000\000\000\022\000\002\000\037\000\000\000#\000\002\0001\000\002\000<\000\002\000?\000\000\000B\000\000\000I\000\002\000O\000\002\000Q\000\002\000Y\000\002\000a\000\002\000h\000\002\000k\000\000\000x\000\000\000y\000\002\000{\000\002\000|\000\002\000\204\000\000\000\026\000\003\000\206\000\002\000\212\000\000\000\221\000\000\000\226\000\002\000\231\000\002\000\246\000\002\000\257\000\000\000\260\000\002\000\261\000\002\000\271\000\000\000\037\000\002\000\276\000\000\000\307\000\002\000\313\000\000\000\317\000\002\000\325\000\002\000\330\000\000\000\333\000\000\000\334\000\000\000\347\000\000\000\351\000\002\000\361\000\002\000\374\000\000\000\376\000\002\000\000\001\000\000\005\001\000\000\r\001\000\000\017\001\002\000\020\001\002\000\024\001\000\000\027\001\000\000\031\001\000\000 \001\000\000!\001\002\000+\001\002\000,\001\002\0001\001\002\0002\001\000\0008\001\000\000;\001\000\000A\001\000\000B\001\000\000D\001\000\000\341\252\000\000L\001\000\000M\001\000\000U\001\000\000V\001\002\000b\001\000\000d\001\000\000f\001\000\000z\001\000\000?\000\002\000\200\001\000\000\216\001\000\000\217\001\000\000\222\001\002\000\240\001\000\000\245\001\002\000\246\001\002\000\247\001\000\000\250\001\002\000\251\001\000\000\264\001\000\000I\000\003\000\271\001\000\000[!\003\000\300\001\000\000\301\001\002\000\302\001\002\000\307\001\000\000\315\001\002\000\321\001\000\000\322\001\000\000\323\001\000\000\372\252\000\000\346\001\000\000\350\001\002\000\357\001\000\000\360\001\000\000\364\001\000\000\371\001\000\000\376\001\002\000\002\002\002\000\007\002\002\000\014\002\000\000\016\002\000\000\017\002\000\000\025\002\000\000\026\002\000\000\"\002\000\000$\002\000\000(\002\000\000,\002\002\0000\002\000\0003\002\000\0004\002\002\0007\002\000\000>\002\000\000?\002\002\000C\002\000\000D\002\000\000N\002\000\000U\002\002\000X\002\000\000h\002\002\000r\002\002\000u\002\000\000x\002\000\000y\002\000\000z\002\002\000\177\002\002\000\201\002\000\000\202\002\002\000\211\002\002\000\216\002\000\000\225\002\000\000\227\002\000\000\231\002\002\000\250\002\000\000\266\002\002\000\315\002\000\000\316\002\000\000\322\002\000\000\332\002\000\000\343\002\000\000\357\002\002\000\362\002\000\000\366\002\002\000\374\002\002\000\375\002\000\000\376\002\000\000\377\002\002\000\004\003\000\000\010\003\002\000\t\003\002\000\013\003\000\000\204\000\003\000\037\003\002\000 \003\002\000#\003\000\000%\003\000\000&\003\002\000\'\003\002\000-\003\002\000.\003\000\0000\003\000\0001\003\002\000\336U\000\0009\003\002\000?\003\000\000B\003\000\000K\003\000\000L\003\000\000U\003\002\000W\003\000\000a\003\002\000e\003\000\000t\003\000\000{\003\000\000|\003\000\000\202\003\000\000\203\003\000\000\204\003\000\000\206\003\002\000\232\003\002\000\241\003\000\000\242\003\002\000\260\003\000\000\271\003\000\000\305\003\000\000\307\003\002\000\320\003\000\000\324\003\000\000\336\003\002\000\341\003\000\000\367\003\002\000\023\004\002\000\024\004\002\000\025\004\002\000\026\004\002\000\037\004\000\000*\004\000\0007\004\000\0008\004\000\000J\004\000\000L\004\002\000N\004\000\000[\004\002\000\\\004\000\000c\004\000\000e\004\002\000k\004\002\000u\004\000\000z\004\000\000\200\004\000\000\205\004\000\000\211\004\002\000\226\004\000\000\231\004\002\000\256\004\000\000\261\004\000\000\271\004\000\000\301\004\000\000\317\004\000\000\323\004\000\000\324\004\000\000\332\004\002\000\334\004\002\000\335\004\002\000\337\004\000\000\354\004\002\000\357\004\000\000\361\004\000\000\363\004\000\000\364\004\002\000\370\004\002\000\376\004\002\000\377\004\002\000\000\005\002\000\t\005\002\000\022\005\000\000#\005\000\000,\005\002\000.\005\000\0000\005\002\0005\005\002\000<\005\002\000@\005\002\000D\005\000\000Q\005\000\000S\005\002\000[\005\000\000\\\005\002\000^\005\002\000_\005\002\000c\005\000\000m\005\002\000n\005\002\000s\005\000\000u\005\000\000{\005\000\000\201\005\002\000\204\005\002\000\214\005\000\000\233\005\002\000\236\005\000\000\237\005\000\000\245\005\002\000\247\005\000\000\256\005\000\000\270\005\002\000\310\005\000\000\334\005\002\000\336\005\000\000\352\005\000\000\355\005\000\000\356\005\000\000\360\005\002\000\361\005\000\000\363\005\000\000\364\005\002\000\366\005\000\000\002\006\002\000\003\006\002\000\010\006\000\000\013\006\000\000(\006\000\000*\006\000\0000\006\000\0002\006\000\0004\006\000\000;\006\002\000<\006\002\000A\006\002\000B\006\000\000E\006\000\000_\006\000\000c\006\002\000f\006\000\000k\006\000\000m\006\000\000n\006\000\000p\006\002\000u\006\000\000z\006\000\000|\006\000\000}\006\000\000\207\006\002\000\210\006\002\000\217\006\000\000\234\006\000\000\242\006\002\000\245\006\002\000\255\006\000\000\257\006\000\000\271\006\000\000\273\006\002\000\277\006\000\000\300\006\002\000\304\006\002\000\305\006\002\000\321\006\000\000\335\006\000\000\205\032\003\000\370\006\000\000\374\006\000\000\006\007\000\000\201V\000\000\024\007\000\000\034\007\000\000/\007\000\0005\007\000\0006\007\000\0008\001\002\000T\007\000\000Y\007\000\000_\007\000\000w\007\000\000{\007\000\000}\007\002\000\203\007\002\000\204\007\002\000\211\007\002\000\214\007\000\000\216\007\002\000\217\007\000\000\236\007\000\000\246\007\002\000\250\007\000\000\300\007\002\000\303\007\002\000\305\007\002\000\315\007\000\000\325\007\000\000\332\007\000\000\342\007\000\000\355\007\000\000\016\010\000\000\021\010\000\000\024\010\000\000\027\010\000\000\037\010\002\000%\010\000\000(\010\000\000/\010\000\000?\010\000\000K\010\000\000O\010\000\000T\010\000\000a\010\000\000d\010\002\000l\010\000\000m\010\000\000v\010\000\000w\010\000\000\206\010\000\000\215\010\000\000\224\010\000\000\225\010\000\000\233\010\000\000\240\010\000\000\241\010\000\000\251\010\000\000\256\010\000\000\276\010\000\000\277\010\000\000\302\010\000\000\303\010\000\000$\254\000\000z\001\002\000\343\010\000\000\367\010\000\000\020\t\000\000\035\t\000\000\"\t\000\000*\t\000\0005\t\000\000A\t\000\000S\t\002\000[\t\000\000h\t\000\000p\t\000\000u\t\000\000y\t\002\000\202\t\000\000\221\t\000\000\237\t\000\000\241\t\000\000\253\t\002\000\255\t\000\000\272\t\000\000\274\t\000\000\300\t\000\000\302\t\000\000\314\t\000\000\317\t\000\000\343\t\000\000\352\t\000\000\353\t\000\000\355\t\000\000\356\t\000\000V\254\002\000\007\n\002\000\010\n\000\000\017\n\000\000\021\n\000\000\023\n\000\000\032\n\000\000%\n\000\0003\n\000\0007\n\000\000K\n\000\000S\n\000\000k\n\000\000l\n\002\000\211\n\002\000\213\n\000\000\214\n\000\000\221\n\000\000\224\n\000\000\230\n\000\000\232\n\000\000\235\n\002\000\307\001\002\000\272\n\002\000\304\n\000\000\320\n\000\000\332\n\000\000\347\n\000\000\352\n\000\000\362\n\000\000\013\013\002\000\r\013\002\000\024\013\002\000\032\013\000\000\033\013\002\000\035\013\000\000\036\013\000\000!\013\000\0003\013\000\0005\013\000\0008\013\002\000:\013\000\000C\013\000\000L\013\002\000N\013\002\000S\013\002\000[\013\000\000\\\013\000\000a\013\000\000e\013\000\000r\013\002\000{\013\000\000}\013\000\000~\013\000\000\207\013\002\000\237\013\000\000\252\013\000\000\254\013\002\000\261\013\000\000\263\013\000\000\265\013\000\000\267\013\002\000\270\013\000\000\302\013\000\000\312\013\000\000\332\013\000\000\335\013\000\000\337\013\000\000\346\013\000\000\353\013\002\000\360\013\000\000\367\013\000\000\373\013\002\000\007\014\002\000\013\014\000\000\034\014\000\000\035\014\000\000!\014\000\000&\014\002\000(\014\002\000<\014\000\000?\014\000\000B\014\002\000\014\002\002\000Q\014\002\000f\014\000\000{\014\002\000\214\014\002\000\224\014\002\000\226\014\002\000\236\014\002\000\237\014\002\000\257\014\000\000\263\014\000\000\273\014\002\000\277\014\002\000\304\014\000\000\312\014\000\000\313\014\002\000\321\014\000\000\326\014\000\000\332\014\000\000\337\014\000\000\340\014\000\000\346\014\000\000\351\014\000\000\361\014\000\000\366\014\000\000\374\014\002\000\001\r\000\000\t\r\000\000\021\r\002\000\024\r\000\000\025\r\000\000\034\r\000\000\036\r\002\0000\r\000\0001\r\000\0004\r\000\0007\r\000\000=\r\000\000A\r\000\000L\r\000\000M\r\002\000S\r\000\000Z\r\002\000[\r\002\000\\\r\000\000_\r\000\000i\r\000\000p\r\002\000z\r\002\000\203\r\000\000\211\r\002\000\216\r\000\000D\002\002\000\241\r\000\000\246\r\000\000\247\r\000\000\270\r\000\000\276\r\000\000\304\r\002\000\311\r\000\000\322\r\000\000\325\r\000\000\331\r\000\000\340\r\000\000\356\r\000\000\363\r\000\000\367\r\002\000\371\r\000\000\373\r\002\000\374\r\000\000\025\016\002\000\037\016\000\000(\016\000\000*\016\000\000/\016\000\000;\016\000\000E\016\000\000G\016\000\000O\016\000\000Q\016\002\000S\016\000\000T\016\000\000]\016\002\000^\016\000\000|\016\000\000}\016\000\000\200\016\000\000\205\016\002\000\217\016\000\000\231\016\000\000\250\016\000\000\263\016\000\000\270\016\002\000t\002\003\000\277\016\000\000\306\016\002\000\312\016\000\000\316\016\000\000\325\016\000\000\326\016\000\000\332\016\002\000\334\016\000\000\345\016\000\000\353\016\000\000\366\016\000\000\374\016\000\000\006\017\002\000\010\017\000\000\202\002\003\000\026\017\000\000\035\017\002\000\036\017\002\000 \017\000\000%\017\000\000(\017\000\000*\017\000\000.\017\000\0002\017\000\0004\017\000\000C\017\000\000P\017\000\000R\017\000\000T\017\000\000U\017\000\000V\017\000\000Y\017\002\000z\017\000\000|\017\000\000\177\017\002\000\220\017\000\000\225\017\002\000\240\017\000\000\246\017\000\000\261\017\002\000\272\017\000\000\273\017\000\000\276\017\000\000\277\017\000\000\300\017\000\000\301\017\000\000\305\017\002\000\306\017\000\000\313\017\002\000\327\017\000\000\334\017\000\000\340\017\002\000\352\017\002\000\354\017\000\000\374\017\002\000\375\017\000\000\377\017\000\000\006\020\002\000\013\020\002\000\r\020\002\000\022\020\002\000\030\020\000\000\033\020\002\000\036\020\000\000\037\020\000\000!\020\002\000+\020\002\000-\020\000\000B\020\002\000D\020\000\000K\020\002\000Y\020\002\000[\020\000\000]\020\000\000e\020\000\000f\020\000\000i\020\002\000u\020\000\000x\020\000\000y\020\002\000\177\020\000\000\202\020\000\000\203\020\002\000\210\020\000\000\224\020\002\000\240\020\000\000\245\020\002\000\246\020\002\000\252\020\002\000\254\020\000\000\255\020\000\000\262\020\002\000\265\020\000\000\266\020\002\000\271\020\002\000\303\020\000\000\320\020\002\000\321\020\000\000\324\020\000\000\316\002\002\000\326\020\002\000\327\020\000\000\330\020\002\000\336\020\002\000%X\000\000\341\020\000\000\321\002\003\000\351\020\000\000\322\002\002\000\356\020\000\000\364\020\000\000\000\021\002\000\002\021\002\000\005\021\000\000\033\021\000\000\034\021\000\000\"\021\000\000\206\255\002\0001\021\000\000>\021\000\000D\021\000\000I\021\000\000O\021\000\000W\021\000\000c\021\000\000l\021\000\000\177\021\000\000\202\021\000\000\214\021\000\000\223\021\000\000\252\021\000\000\255\021\000\000\267\021\000\000\325\021\000\000\335\021\002\000\371\021\000\000\003\022\000\000\007\022\002\000\020\022\000\000\025\022\002\000\"\022\000\000$\022\000\000+\022\002\0004\022\000\000=\022\000\000?\022\002\000A\022\000\000B\022\000\000L\022\000\000S\022\000\000\\\022\000\000l\022\000\000s\022\000\000t\022\000\000~\022\002\000\210\022\000\000\242\022\002\000\244\022\002\000\264\022\002\000\267\022\000\000\272\022\000\000\305\022\002\000\307\022\002\000\320\022\002\000\323\022\002\000\326\022\000\000\334\022\002\000%\003\002\000\344\022\000\000\347\022\000\000\353\022\002\000\013\023\000\000\017\023\000\000\027\023\000\000\032\023\000\000\034\023\000\000\035\023\000\000%\023\000\000-\023\000\000;\023\002\000?\023\000\000\213X\000\000E\023\000\000\214X\000\000N\023\000\000\\\023\000\000]\023\000\000^\023\000\000d\023\000\000j\023\000\000u\023\000\000y\023\000\000\177\023\000\000\201\023\000\000\207\023\000\000\220\023\000\000\226\023\000\000\230\023\000\000\234\023\002\000\243\023\002\000\317\023\002\000\321\023\000\000\332\023\000\000\336\023\000\000\342\023\000\000\350\023\002\000\351\023\000\000\356\023\002\000\002\024\000\000\t\024\000\000\014\024\000\000\022\024\000\000\023\024\002\000\030\024\000\000\033\024\000\000$\024\000\000&\024\002\000.\024\002\000<\024\000\000G\024\000\000O\024\002\000R\024\000\000S\024\000\000T\024\000\000V\024\000\000^\024\000\000\274X\000\000n\024\002\000s\024\000\000\276X\002\000|\024\000\000~\024\000\000\202\024\000\000\205\024\000\000\221\024\000\000\222\024\000\000\224\024\000\000\231\024\002\000\233\024\000\000\243\024\002\000\250\024\000\000\273\024\000\000\274\024\000\000\300\024\002\000\312\024\002\000\326\024\000\000\336\024\000\000\340\024\000\000\341\024\000\000|\003\002\000\353\024\000\000\360\024\000\000\362\024\000\000\366\024\000\000\372\024\000\000\000\025\000\000\022\025\000\000\024\025\000\000\036\025\000\000#\025\000\000-\025\002\000/\025\002\000C\025\000\000D\025\002\000M\025\000\000V\025\000\0009\256\000\000Y\025\002\000a\025\000\000c\025\000\000d\025\002\000g\025\002\000j\025\000\000p\025\000\000v\025\002\000\210\025\002\000\271\025\002\000\274\025\002\000\301\025\002\000\302\025\000\000\316\025\002\000\325\025\002\000\326\025\002\000\331\025\000\000\347\025\000\000\364\025\000\000\365\025\000\000\375\025\000\000\023\026\000\000\025\026\000\000\027\026\000\000\"\026\002\000)\026\000\000P\026\002\000c\026\000\000g\026\000\000\203\026\000\000\211\026\000\000\027Y\000\000\220\026\000\000\224\026\000\000\233\026\000\000\244\026\000\000\245\026\000\000\246\026\000\000\247\026\000\000\254\026\000\000\262\026\000\000\266\026\000\000\271\026\000\000\274\026\000\000\277\026\000\000\303\026\000\000\313\026\000\000\314\026\000\000\316\026\000\000\341\026\000\000\343\026\000\000\345\026\000\000\357\026\002\000\361\026\002\000\366\026\002\000\367\026\002\000\021\027\002\000\023\027\000\000\030\027\000\000!\027\000\000-\027\002\000.\027\000\000/\027\002\0006\027\000\000D\027\000\000G\027\000\000J\027\000\000S\027\000\000X\027\000\000a\027\000\000x\027\000\000\203\027\000\000\207\027\000\000\213\027\000\000\214\027\000\000\217\027\000\000\235\027\000\000\236\027\000\000\254\027\002\000\275\027\000\000\315\027\002\000\321\027\000\000\324\027\000\000\327\027\002\000\337\027\000\000\344\027\000\000\351\027\000\000\354\027\002\000\363\027\002\000\364\027\000\000\370\027\000\000\375\027\000\000\376\027\000\000\377\027\002\000\000\030\002\000\003\030\000\000\021\030\000\000\025\030\000\000!\030\002\000&\030\000\000*\030\002\000+\030\002\000/\030\000\0003\030\002\0007\030\000\000=\030\002\000B\030\000\000F\030\002\000d\030\000\000i\030\000\000m\030\000\000o\030\002\000s\030\000\000\203\030\000\000\302\256\000\000\235\030\000\000\242\030\002\000\261\030\000\000\271\030\000\000\313\030\000\000\314\030\000\000\320\030\000\000\327\030\000\000\334\030\000\000*\004\001\000\022\031\000\000\032\031\000\0001\031\002\0007\031\000\000F\031\000\000G\031\000\000\026V\000\000V\031\002\000\217Y\000\000`\031\000\000c\031\002\000h\031\000\000l\031\000\000m\031\002\000w\031\002\000\206\031\002\000\221\031\000\000\222\031\002\000\233\031\000\000\246\031\002\000\257\031\000\000\262\031\002\000\277\031\000\000\304\031\000\000\305\031\002\000\324\031\000\000\326\031\000\000\333\031\000\000\335\031\000\000\336\031\000\000\337\031\000\000\343\031\002\000\362\031\000\000\363\031\002\000\372\031\000\000\375\031\000\000\253Y\000\000\010\032\000\000\020\032\002\000\025\032\000\000\034\032\002\000)\032\000\0002\032\002\0009\032\000\000G\032\000\000P\032\000\000T\032\000\000W\032\000\000o\032\000\000p\032\000\000{\032\000\000\206\032\002\000\211\032\002\000\213\032\002\000\217\032\000\000\030\257\000\000\225\032\000\000\226\032\002\000\234\032\000\000\261\032\000\000\276\032\000\000\302\032\000\000\306\032\000\000\307\032\000\000\313\032\000\000\314\032\000\000z\004\003\000\337\032\000\000\352\032\000\000\354\032\002\000\355\032\000\000\356\032\000\000\361\032\000\000\363\032\000\000\372\032\000\000\374\032\000\000\376\032\000\000\003\033\000\000\006\033\000\000\t\033\000\000\022\033\002\000\023\033\002\000\031\033\000\000\032\033\000\000\036\033\000\000\037\033\002\000 \033\002\000!\033\002\000$\033\002\0000\033\002\000Q\033\000\000`\033\000\000n\033\000\000|\033\000\000\177\033\000\000\201\033\000\000\212\033\000\000\221\033\002\000\234\033\000\000\236\033\000\000\237\033\000\000\241\033\000\000\245\033\000\000\250\033\000\000\267\033\000\000\313\033\000\000\316\033\000\000\323\033\000\000\327\033\000\000\330\033\000\000\343\033\002\000\350\033\000\000\354\033\000\000\355\033\000\000\362\033\002\000\365\033\000\000\372\033\000\000\002\034\002\000\007\034\000\000\014\034\000\000\016\034\002\000\023\034\000\000\261\004\002\0000\034\002\000:\034\000\000<\034\002\000?\034\000\000@\034\002\000M\034\002\000c\257\002\000T\034\002\000W\034\000\000[\034\002\000h\034\002\000i\034\000\000\177\034\000\000\217\034\000\000\222\034\000\000\227\034\000\000\230\034\000\000\252\034\000\000\254\034\000\000\262\034\000\000\272\034\000\000\304\034\000\000\315\034\000\000\317\034\000\000\330\034\000\000\331\034\000\000\333\034\000\000\004\315\002\000\366\034\000\000\370\034\000\000\024\035\000\000\034\035\000\000\037\035\000\000%\035\000\000&\035\002\000)\035\002\000,\035\000\0001\035\000\0003\035\002\0009\035\000\000=\035\002\000E\035\002\000F\035\000\000K\035\000\000N\035\000\000R\035\000\000S\035\000\000]\035\000\000b\035\000\000o\035\000\000u\035\000\000{\035\002\000\202\035\000\000\205\035\000\000\216\035\000\000\357\004\002\000\247\035\002\000\250\035\002\000\256\035\002\000\265\035\002\000\311\035\000\000\313\035\002\000\320\035\000\000\322\035\000\000\323\035\000\000\324\035\002\000\331\035\000\000\334\035\002\000\336\035\002\000\345\035\000\000\351\035\002\000\365\035\000\000\372\035\000\000\375\035\002\000\005\036\002\000\013\036\000\000\021\036\000\000\023\036\002\000\031\036\002\000\032\036\000\000\034\036\000\000#\036\002\000\'\036\000\000-\036\002\000/\036\000\0001\036\002\0008\036\002\000\264\257\000\000@\036\002\000H\036\000\000K\036\002\000h\036\000\000i\036\000\000\022\005\002\000n\036\000\000\276\257\002\000|\036\000\000\212\036\002\000\215\036\000\000\225\036\000\000\304\257\000\000\251\036\002\000\254\036\000\000\257\036\000\000\274\036\000\000\305\036\000\000\325\036\000\000\341\036\000\000\342\036\000\000\351\036\002\000\004\037\000\000\005\037\002\000\t\037\002\000\022\037\002\000\025\037\000\000$\037\000\000&\037\000\000)\037\002\0000\037\000\0006\037\000\000D\037\002\000Y\037\000\000[\037\000\000f\037\002\000n\037\002\000p\037\000\000\202\037\002\000\223\037\000\000\231\037\000\000\236\037\000\000\237\037\000\000\247\037\000\000\362\257\002\000\260\037\002\000\275\037\000\000\301\037\000\000\325\037\000\000\326\037\002\000\345\037\000\000\346\037\000\000\353\037\000\000\363\037\000\000\367\037\002\000\370\037\000\000\001 \000\000\010 \000\000\013 \000\000\r \000\000\020 \000\000\022 \002\000\024 \002\000\034 \000\000& \000\000) \002\000, \000\000- \000\0006 \002\0007 \000\000; \002\000F \002\000J \000\000K \002\000M \000\000^ \000\000b \002\000m \002\000\236\274\000\000s \000\000t \000\000w \002\000y \002\000{ \000\000\200 \000\000\201 \000\000\204 \000\000\213 \002\000\216 \000\000\220 \002\000\222 \000\000\240 \002\000\250 \000\000\252 \000\000\261 \000\000\273 \000\000\312 \000\000\336 \000\000\340 \000\000\343 \000\000\344 \000\000\345 \000\000\351 \000\000\366 \002\000\367 \000\000\r!\002\000\024!\002\000\034!\000\000\035!\000\000(!\002\000,!\000\0001!\000\0003!\000\0004\260\002\000K!\002\000L!\000\000N!\000\000O!\002\000R!\002\000Z!\002\000t!\002\000\206!\002\000\211!\002\000\213!\000\000\224!\002\000\240!\002\000\241!\002\000\245!\000\000\250!\002\000\251!\000\000\256!\000\000\260!\000\000\261!\000\000\267!\000\000\276!\002\000\307!\002\000\315!\002\000\327!\000\000\332!\000\000\334!\000\000\355!\002\000\360!\002\000\363!\000\000\366!\000\000\367!\000\000\375!\002\000\010\"\000\000\014\"\000\000$\"\000\000\'\"\000\000-\"\000\0005\"\000\0007\"\000\000@\"\002\000F\"\000\000K\"\002\000M\"\000\000O\"\000\000W\"\000\000[\"\002\000g\"\000\000q\"\002\000y\"\000\000j\260\000\000\177\"\000\000\200\"\000\000\203\"\000\000\205\"\000\000\212\"\000\000\220\"\002\000\230\"\002\000\232\"\000\000\255\"\000\000\257\"\000\000\265\"\000\000\270\"\000\000\274\"\000\000\276\"\000\000\317\"\000\000\321\"\000\000\324\"\000\000\330\"\000\000\337\"\002\000\342\"\000\000\345\"\000\000\364\"\000\000\371\"\000\000\375\"\000\000\001#\000\000\003#\000\000\r#\000\000\021#\000\000\022#\000\000\037#\000\000&#\000\000(#\000\0001#\000\0002#\000\0007#\002\000\\#\002\000a#\000\000k#\002\000l#\002\000m#\002\000t#\000\000\204#\000\000\207#\000\000\211#\000\000\220#\000\000\232#\000\000\262#\000\000\264#\000\000\275#\000\000\304#\002\000\312#\000\000\317#\000\000\323#\000\000\324#\000\000\326#\000\000\334#\002\000\340#\000\000\342#\000\000\343#\002\000\356#\000\000\363#\000\000\366#\000\000\n$\002\000\017$\000\000\023$\002\000\032$\002\000\033$\000\000+$\000\000D$\002\000E$\002\000F$\002\000I$\002\000L$\002\000\016\006\003\000Y$\000\000Z$\000\000h$\000\000n$\000\000p$\000\000q$\000\000v$\002\000\204$\000\000\221$\000\000\224$\002\000\235$\000\000\246$\000\000\256$\002\000\264$\000\000\306$\000\000\313$\000\000\327$\000\000$\006\003\000\372$\000\000\376$\000\000\006%\000\000\t%\000\000 %\002\000*%\000\000@%\000\000Q%\000\000\216[\002\000Y%\000\000i%\000\000~%\000\000\245%\000\000\361\260\000\000\256%\002\000\266%\000\000\274%\000\000\277%\002\000\367\260\000\000\317%\000\000\344%\000\000\357%\000\000\361%\000\000\362%\000\000\365%\002\000\366%\000\000\375%\000\000\377%\000\000\025&\000\000\033&\000\000\037&\000\0008&\000\000:&\000\000Z&\000\000e&\000\000j&\002\000o&\002\000v&\000\000x&\000\000z&\002\000\204&\000\000\302[\000\000\216&\000\000\232&\002\000\236&\000\000\241&\000\000\253&\002\000\260&\000\000\264&\000\000\273&\000\000\305&\000\000\312&\000\000\323&\000\000\324&\002\000\331&\002\000\334&\000\000\354&\000\000\355&\002\000\357&\000\000\375&\000\000\376&\000\000\010\'\000\000\013\'\002\000\r\'\000\000\021\'\000\000$\'\000\000+\'\000\000,\'\000\0005\'\000\0009\'\000\000D\'\000\000E\'\000\000f\'\000\000o\'\000\000{\'\000\000\211\'\002\000\221\'\000\000\235\'\000\000\260\'\000\000\261\'\000\000\274\'\000\000\303\'\000\000\314\'\000\000\315\'\002\000\323\'\002\000\332\'\000\000\336\'\002\000\343\'\000\000\347\'\000\000\007(\002\000\014(\002\000\017(\000\000+(\000\000/(\000\0004(\000\000;(\000\000?(\000\000E(\002\000S(\002\000U(\000\000c(\000\000d(\000\000e(\002\000\201(\000\000\202(\000\000\230(\000\000\231(\000\000\234(\000\000\237(\000\000\242(\000\000\243(\000\000\245(\000\000\246(\000\000\252(\002\000\256(\002\000\257(\002\000\307(\000\000\311(\000\000\312(\000\000\315(\000\000\316(\000\000\321(\000\000\325(\002\000\337(\000\000\344(\002\000\351(\000\000\353(\000\000\354(\000\000\360(\002\000\365(\000\000\374(\000\000\006)\000\000\013)\000\000\016)\002\000\026)\000\000\037)\000\000 )\002\000%)\000\000&)\002\000))\000\000.)\002\000/)\000\000:)\000\000?)\000\000K)\002\000W)\002\000q)\000\000t)\002\000\202)\002\000\203)\000\000\217)\000\000\233)\002\000\246)\002\000\257)\000\000\263)\000\000\265)\002\000\305)\002\000\307)\000\000\310)\000\000\322)\002\000\334)\000\000\341)\002\000\364)\002\000\366)\002\000\251\261\000\000\376)\000\000\005*\000\000\026*\000\000\027*\000\000\033*\002\000(*\000\0007*\002\0009*\002\000<*\000\000@*\000\000X*\000\000a*\000\000|*\002\000\202*\002\000\203*\002\000\204*\000\000\211*\000\000\241*\000\000\260*\002\000\272*\002\000\303*\002\000\305*\002\000\317*\002\000\344*\000\000\353*\002\000\360*\002\000\361*\002\000\375*\002\000\376*\002\000\t+\002\000\030+\002\000\032+\000\000$+\002\000%+\002\000&+\000\000++\000\000\211\\\000\0008+\000\000>+\000\000Y+\002\000^+\000\000o+\000\000y+\002\000\202+\002\000\204+\002\000\206+\000\000\216+\000\000\300\"\003\000\243+\002\000\244+\000\000\252+\000\000\254+\002\000\260+\002\000\265+\002\000\276+\000\000\301+\000\000L\007\003\000\316+\000\000\325+\000\000\327+\000\000\330+\000\000\331+\000\000\334+\002\000\336+\002\000\353+\000\000\361+\000\000\370+\002\000\373+\000\000\377+\000\000\000,\002\000\010,\002\000\n,\000\000\022,\000\000\023,\000\000\026,\000\000\",\002\000,,\002\000-,\000\000:,\000\000[,\000\000_,\000\000b,\000\000\021\262\000\000h,\000\000j,\000\000n,\002\000o,\000\000w,\000\000\202,\002\000\204,\002\000\205,\000\000\210,\000\000l\007\003\000\216,\002\000\220,\002\000\221,\002\000\222,\002\000\232,\002\000\236,\000\000\237,\002\000\241,\000\000\244,\002\000\251,\000\000\255,\000\000\256,\002\000\263,\002\000\270,\002\000\273,\002\000\301,\002\000\311,\000\000\316,\000\000\320,\002\000\321,\002\000\343,\002\000\361,\002\000\375,\002\000\003-\000\000\005-\002\000\007-\000\000\016-\000\000\017-\000\000\021-\002\000\022-\002\000\037-\000\000 -\000\000\'-\000\0003-\000\0005-\000\000C-\002\000I-\002\000M-\002\000V-\002\000_-\002\000a-\000\000i-\000\000m-\000\000p-\000\000s-\002\000\203-\002\000\214-\002\000\223-\002\000\224-\000\000\257-\000\000\261-\002\000\270-\002\000\303-\002\000\307-\002\000\313-\000\000\321-\000\000\327-\000\000\246\007\000\000\377-\002\000\004.\000\000\017.\002\000X\262\002\000\033.\000\000\034.\000\000\".\000\0001.\000\000>.\000\000F.\000\000I.\002\000Z.\000\000[.\002\000\\.\000\000b.\002\000l.\000\000u.\000\000z.\000\000\201.\002\000\207.\002\000\217.\002\000\221.\000\000\222.\002\000\223.\002\000\225.\002\000\230.\002\000\241.\000\000\243.\002\000\245.\002\000\254.\002\000\256.\002\000\265.\000\000\267.\002\000\274.\000\000\303.\002\000\305.\002\000\327.\002\000\332.\000\000\335.\002\000\337.\000\000\343.\002\000\357.\002\000\363.\002\000\375.\002\000\001/\002\000\r/\002\000\025/\002\000\027/\002\000\033/\000\000 /\000\000*/\002\0000/\002\0001/\000\000>/\002\000\020\254\000\000Q/\000\000S/\000\000Z/\002\000^/\002\000d/\000\000e/\000\000f/\000\000n/\002\000o/\002\000\203/\000\000\232/\000\000\233/\002\000\235/\000\000\241/\000\000\250/\000\000\251/\000\000\256/\002\000\265/\000\000\267/\002\000\274/\000\000\275/\000\000\311/\000\000\334/\002\000\340/\002\000\342/\000\000\345/\000\000\351/\002\000\352/\000\000\362/\002\000\0030\000\000\0040\002\000\0060\000\000\0140\000\000\0210\002\000\0220\002\000\0330\002\000 0\002\000\261\262\000\000/0\002\00000\000\00090\000\000<0\002\000?0\002\000A0\002\000C0\000\000G0\000\000M0\000\000X0\000\000`0\002\000a0\000\000b0\000\000d0\000\000g]\000\000}0\002\000\2140\000\000\2170\000\000\030\010\003\000\2330\000\000\2400\000\000\2410\002\000\2520\000\000\037\010\000\000\3020\002\000\3030\002\000\3100\002\000\3160\000\000\3440\002\000\325\262\000\000\0241\000\000\0251\000\000\0301\000\000!1\002\000%1\002\000,1\000\00011\000\00021\000\00051\000\00071\000\00081\000\000<1\000\000H1\000\000K1\000\000Y1\002\000}1\002\000\2041\002\000\2051\002\000\2111\002\000\2141\000\000\2361\002\000\2421\002\000\2541\002\000\362\262\002\000\2611\002\000\2631\000\000\2671\002\000\3011\000\000\3161\002\000\3171\002\000\3331\000\000\3501\000\000\3551\000\000\3561\002\000\3621\002\000\3631\000\000\3711\000\000\t2\002\000\0132\002\000\r2\000\000\0202\002\000\0362\002\000\'2\002\000(2\002\000*2\000\000,2\000\000-2\002\000.2\000\00092\002\000;2\002\000E2\002\000G2\000\000J2\002\000S2\000\000T2\000\000U2\000\000W2\002\000Z2\000\000\\2\002\000_2\000\000`2\002\000a2\000\000c2\000\000d2\000\000g2\000\000q2\000\000\023\263\000\000t2\002\000z2\000\000~2\000\000\2022\000\000\2032\002\000\2042\002\000\2062\000\000\2112\000\000\2152\002\000\2172\000\000\2262\002\000\2272\000\000\2302\002\000\2322\002\000\2332\000\000\2352\002\000\2362\000\000\2442\002\000\2462\000\000\2502\002\000\2602\002\000\2612\002\000\2622\002\000\2642\002\000\2672\002\000\2702\002\000\2722\002\000\2742\000\000\3002\002\000\3012\002\000\3042\000\000\3112\002\000\3132\002\000\3142\002\000\3162\002\000\3202\000\000\3222\002\000\3232\002\000\3362\002\000\3422\002\000\3562\002\000\3642\002\000\3702\002\000\3732\002\000\0023\002\000\0053\002\000\0063\002\000\t3\002\000\n3\002\000\0133\000\000\202\010\003\000-\263\002\000\0223\002\000\0253\002\000\0363\002\000!3\002\000$3\002\000%3\000\000\'3\002\000.3\002\00033\002\000?3\002\000@3\000\000F3\000\000G3\002\000O3\000\000Q3\000\000`3\002\000b3\000\000d3\002\000f3\000\000j3\000\000y3\002\000\2153\002\000\2263\002\000\2423\000\000\2453\002\000\2473\002\000\2633\000\000\2733\000\000\3013\000\000\3073\000\000\3103\000\000\3233\000\000\3433\000\000\3613\002\000\3633\000\000\3763\000\000\0004\002\000\0054\000\000\0254\002\000\0364\000\000&4\000\000)4\000\00014\000\000B4\000\000F4\000\000P4\000\000T4\000\000U4\000\000V4\000\000`4\000\000a4\000\000d4\000\000m4\002\000t4\000\000{4\000\000\2034\000\000\2054\002\000\2114\000\000\2144\000\000\2174\000\000\2264\000\000\2314\000\000\2324\000\000\2424\000\000\2534\002\000\2604\000\000\2644\000\000\2674\002\000\2754\002\000\3024\000\000\3064\002\000\3124\000\000\3264\000\000\3314\000\000\3324\000\000\317\010\003\000\3444\002\000\3524\000\000\3624\000\000\3724\000\000\0005\000\000\0045\000\000\0315\000\000\332\010\003\000#5\002\000\'5\000\000.5\002\00035\000\00085\000\000:5\000\000L5\000\000Q5\000\000T5\000\000V5\002\000[5\000\000m5\002\000t5\000\000u5\002\000|5\000\000\2105\000\000\2125\000\000\2135\000\000\2175\002\000\2205\002\000\2235\000\000\2245\002\000\2305\000\000\2365\002\000\2475\000\000\2515\002\000\2545\000\000\2565\002\000\2575\002\000\2675\000\000\3005\000\000\3105\000\000\3145\000\000\3155\002\000\3215\002\000\3255\000\000\3305\000\000\3315\000\000\3325\002\000\3345\000\000\3415\002\000\3425\000\000\3455\002\000\3515\002\000\3565\000\000\3615\002\000\3735\000\000\3765\000\000\0016\000\000\0026\000\000\0066\000\000\0166\000\000\0216\000\000\0226\000\000\0246\002\000\257\263\002\000 6\002\000#6\000\000&6\000\000,6\000\00056\000\000@6\000\000Q6\002\000U6\000\000X6\000\000Z6\000\000`6\000\000a6\002\000b6\002\000c6\002\000f6\000\000h6\002\000q6\000\000t6\002\000v6\002\000x6\002\000~6\000\000\2066\002\000\2076\002\000\2116\002\000\2156\002\000\2166\000\000\2316\002\000\2326\002\000\2336\000\000\2346\002\000\2446\000\000\2456\002\000q^\000\000\2536\002\000\2576\002\000\2616\002\000\2646\002\000\2676\000\000\2756\002\000\2776\002\000\3126\002\000\3156\002\000\3226\002\000\3236\002\000\3266\000\000\3326\002\000\3356\002\000\3376\002\000\3406\002\000\3426\002\000\3436\002\000\3476\002\000\3556\000\000\3616\000\000~^\000\000\0107\000\000\n7\000\000\0277\000\000\0307\000\000\0347\000\000\0357\000\000#7\000\00027\000\00067\000\00087\000\000l7\000\000o7\000\000z7\002\000\2077\002\000\2217\000\000\2227\002\000\2267\002\000\2277\000\000\2317\000\000\2447\002\000\2527\000\000\2557\002\000\2617\002\000\2637\000\000\2767\000\000\351\315\002\000\3107\002\000\3137\000\000\3177\002\000\3207\000\000\3227\000\000\3447\002\000\3457\000\000\3657\002\000\3667\002\000\3677\002\000\0038\000\000V\t\003\000\0108\002\000\r8\000\000\0338\000\000)8\000\000.8\000\00008\000\000:8\000\000E8\000\000G8\000\000c\t\003\000\272^\000\000`8\000\000f8\002\000j8\000\000\2118\002\000\2238\002\000\2268\000\000\2628\002\000\2668\002\000\3018\000\000\3268\002\000\3368\000\000\3418\000\000\3468\002\000\3628\000\000\3658\000\000\3768\000\000\n9\002\000\r9\000\000/9\000\000?9\000\000V9\000\000X9\000\000e9\002\000j9\002\000p9\000\000q9\000\000s9\002\000y9\000\000\2019\000\000\2109\000\000\2129\000\000\2139\000\000\2209\000\000\2319\000\000\2369\000\000\2469\002\000\2579\000\000\2669\000\000\2729\000\000\2769\002\000\3079\000\000\3139\000\000\3149\000\000\3269\000\000\3319\000\000\3379\002\000\3409\000\000\3439\000\000\3549\000\000\3609\000\000\3709\000\000\3729\002\000\3739\000\000\000:\000\000\001:\000\000\004:\000\000\255\t\003\000\021:\000\000\022:\000\000\023:\000\000\025:\002\000(:\002\000,:\002\000.:\002\000/:\002\0002:\002\0003:\002\0004:\002\0005:\002\0007:\002\000::\002\000;:\000\000\n_\000\000?:\002\000A:\000\000B:\000\000D:\002\000b\264\002\000V:\002\000W:\002\000Z:\000\000\\:\000\000^:\000\000f:\000\000g:\002\000j:\002\000m:\002\000p:\000\000r:\002\000t:\000\000w:\000\000x:\002\000}:\002\000\207:\002\000m\264\001\000\224:\000\000\230:\000\000\232:\002\000\233:\002\000\236:\000\000\237:\000\000\240:\000\000\247:\000\000\251:\000\000\253:\000\000\254:\000\000\261:\002\000\265:\002\000\274:\000\000\305:\000\000\312:\000\000\313:\000\000\324:\002\000\327:\000\000\330:\002\000\334:\002\000\336:\000\000\343:\002\000\344:\002\000\345:\000\000\350:\002\000\352:\002\000\355:\000\000\361:\002\000\366:\002\000\372:\002\000\373:\002\000\375:\000\000\000;\000\000\001;\000\000\002;\000\000\006;\000\000\007;\000\000\t;\000\000\n;\002\000\013;\000\000\016;\000\000\017;\000\000\026;\000\000\031;\000\000\";\002\000);\002\000+;\002\000/;\000\0004;\000\000A;\000\000B;\002\000C;\002\000G;\000\000R;\000\000T;\002\000_;\002\000j;\002\000m;\002\000n;\002\000p;\000\000u;\002\000w;\002\000\212;\000\000\222;\000\000\236;\000\000\241;\000\000\246;\002\000\255;\000\000\260;\002\000\264;\000\000\265;\000\000\274;\002\000\307;\002\000\311;\000\000\320;\002\000\325;\000\000\336;\002\000\340;\002\000\341;\002\000\342;\002\000\345;\002\000\346;\000\000\347;\002\000\350;\002\000\352;\002\000\354;\002\000\356;\002\000\361;\002\000\362;\002\000\372;\000\000\026<\000\000\035<\000\000-<\000\000.<\000\0000<\002\0001<\000\0006<\000\000K<\000\000P<\000\000R<\000\000X<\000\000Y<\000\000]<\000\000a<\000\000l<\000\000n<\002\000x<\002\000~<\000\000\201<\000\000\203<\000\000\204<\002\000\205<\002\000\212<\002\000\224<\000\000\233<\000\000\235<\000\000\236<\000\000\246<\002\000\254<\000\000\265<\000\000\274<\000\000\317<\000\000\324<\000\000\325<\000\000\326<\000\000\327<\002\000\337<\000\000\340<\002\000\351<\000\000\373<\000\000\325\264\002\000\002=\002\000\t=\000\000\017=\002\000\033=\000\000&=\000\000\'=\002\000(=\000\000,=\002\000-=\000\0007=\000\000==\000\000Q=\000\000R=\000\000W=\000\000e=\002\000h=\000\000l=\000\000t=\000\000{=\000\000\215=\000\000\237=\000\000\241=\000\000\243=\000\000\247=\000\000\256=\002\000\261=\000\000\301=\000\000\363=\002\000\365=\000\000\370=\002\000\373=\002\000\374=\002\000\002>\000\000\005>\002\000\021>\002\000\027>\002\000\033>\002\000\035>\000\000\">\000\0004>\000\0006>\002\0008>\002\000B>\002\000V>\000\000b>\000\000d>\000\000e>\002\000g>\000\000l>\002\000n>\002\000h\n\003\000w>\002\000z>\002\000~>\000\000\200>\002\000\203>\002\000\207>\000\000\211>\000\000\212>\002\000\217>\000\000\220>\002\000\230>\000\000\236>\000\000\237>\002\000\242>\002\000\247>\002\000\254>\002\000\255>\002\000\264>\002\000\265>\002\000\267>\000\000\272>\000\000\274>\000\000\300>\002\000\301>\002\000\305>\002\000\307>\002\000\317>\002\000\320>\002\000\331>\000\000\317_\000\000\335>\000\000\340>\000\000\342>\002\000\343>\002\000\346>\000\000\347>\000\000\351>\002\000\352>\002\000\360>\000\000\361>\000\000\362>\002\000\363>\000\000\365>\000\000\367>\002\000\373>\002\000\376>\002\000\000?\000\000\016?\002\000\020?\000\000\025?\000\000\027?\000\000\031?\000\000\032?\000\000 ?\000\000\'?\000\000)?\000\0000?\000\000H?\000\000J?\000\000N?\000\000P?\000\000Q?\000\000T?\000\000V?\000\000X?\000\000_?\000\000x?\000\000y?\000\000\202?\000\000\217?\002\000\224?\000\000\230?\000\000\243?\000\000\257?\002\000\266?\000\000\267?\000\000\240\n\001\000\322?\000\000\331?\002\000\340?\000\000\343?\000\000\345?\002\000\346?\002\000\347?\002\000\353?\000\000\355?\002\000\356?\000\000\360?\000\000\364?\000\000\365?\000\000\366?\002\000\371?\002\000\373?\002\000\376?\000\000\002@\000\000\003@\002\000\004@\002\000\010@\002\000\n@\002\000\014@\002\000\r@\002\000\017@\000\000\020@\002\000\021@\000\000\023@\002\000\026@\000\000\030@\002\000\031@\002\000\036@\002\000\037@\002\000\"@\000\000#@\002\000(@\000\000)@\002\000+@\002\000/@\000\0000@\002\0002@\002\0004@\000\0007@\002\0008@\000\0009@\002\000\264#\002\000<@\000\000>@\002\000@@\002\000A@\002\000C@\002\000D@\002\000E@\000\000F@\002\000H@\002\000M@\002\000Q@\002\000V@\000\000Y@\002\000Z@\000\000]@\002\000_@\000\000`@\000\000a@\000\000d@\000\000f@\000\000g@\000\000h@\000\000i@\000\000j@\000\000k@\002\000m@\002\000n@\000\000p@\000\000s@\002\000t@\002\000x@\000\000~@\002\000\177@\002\000\200@\000\000\202@\000\000\222@\000\000\223@\002\000\224@\000\000\230@\000\000\231@\002\000\232@\000\000\235@\002\000\237@\002\000\241@\002\000\244@\000\000\246@\002\000\250@\002\000\255@\002\000\261@\002\000\263@\000\000\264@\002\000\265@\002\000\266@\002\000\267@\000\000\270@\000\000\272@\000\000\274@\002\000\275@\002\000\303@\002\000\310@\000\000\314@\000\000\316@\002\000\317@\000\000\325@\002\000\333@\000\000\334@\002\000\342@\000\000\343@\000\000\347@\000\000\351@\002\000\354@\002\000\371@\002\000\373@\002\000\005A\000\000\007A\002\000\017A\002\000\021A\002\000\032A\000\000\033A\002\000\037A\000\000\"A\002\000$A\002\000*A\000\000/A\002\0009A\000\000;A\000\000<A\002\000>A\002\000AA\002\000FA\002\000GA\002\000KA\002\000OA\000\000QA\002\000RA\002\000TA\002\000UA\002\000VA\000\000WA\002\000XA\002\000^A\002\000bA\002\000iA\002\000jA\002\000lA\002\000uA\000\000wA\000\000~A\002\000\202A\002\000\211A\002\000\212A\002\000\220A\002\000\226A\002\000\227A\002\000\236A\000\000\240A\000\000\251A\002\000\255A\000\000\267A\002\000\275A\000\000\301A\000\000\303A\000\000\322A\000\000\333A\000\000\335A\002\000\356A\000\000\370A\000\000\010B\000\000\nB\000\000\013B\000\000\016B\002\000\017B\002\0004B\000\000KB\002\000TB\000\000XB\000\000^B\000\000cB\000\000iB\000\000pB\002\000sB\002\000uB\002\000\202B\000\000\210B\002\000\213B\000\000\220B\000\000\224B\002\000\275B\002\000\307B\000\000\317B\000\000\327B\000\000\331B\002\000\333B\000\000\334B\002\000\340B\002\000\352B\002\000\357B\002\000\362B\002\000\007C\002\000\nC\002\000\rC\002\000.C\000\000/C\000\0002C\000\000CC\000\000IC\002\000QC\000\000fC\002\000kC\000\000rC\002\000sC\000\000zC\002\000|C\002\000\203C\000\000\231C\000\000\244C\000\000\253C\002\000\266C\002\000\274C\000\000\276C\000\000\303C\000\000\313C\000\000\242`\000\000\323C\002\000\337C\002\000\345C\002\000\353C\000\000R\013\001\000\360C\000\000\374C\000\000\001D\000\000\005D\000\000\010D\000\000\017D\000\000\021D\000\000\024D\000\000\257`\002\000 D\000\000%D\002\000+D\000\0002D\000\000<D\000\000>D\002\000AD\002\000GD\000\000ID\002\000KD\000\000LD\000\000PD\002\000RD\000\000TD\000\000WD\000\000g\013\003\000mD\000\000#\212\002\000rD\000\000uD\000\000\204D\000\000l\013\003\000\212D\000\000\215D\000\000\221D\002\000\262D\002\000\276D\000\000\304D\000\000\312D\002\000\314D\000\000\315D\000\000\316D\002\000\327D\000\000\343D\002\000\346D\002\000\350D\002\000\352D\002\000\356D\002\000\366D\002\000\373D\002\000\374D\002\000\377D\002\000\000E\002\000\010E\002\000\017E\002\000\021E\002\000\022E\000\000\024E\002\000\031E\002\000\037E\002\000 E\002\000!E\002\000\"E\002\000%E\002\000\'E\002\000,E\002\0003E\002\0006E\002\0007E\002\000ME\000\000PE\002\000ZE\002\000\346`\002\000kE\000\000qE\000\000rE\002\000tE\000\000xE\002\000\225\013\003\000\202E\002\000\205E\002\000\222E\002\000\223E\000\000\230E\002\000\244E\002\000\247E\002\000\234\013\003\000\260E\002\000\237\013\003\000\331E\000\000\333E\002\000\351E\002\000\353E\000\000\364E\000\000\371E\000\000\374E\002\000U\266\002\000\021F\000\000#F\000\000+F\000\000BF\000\000PF\002\000c\266\002\000]F\000\000gF\000\000sF\000\000tF\002\000wF\000\000xF\002\000}F\000\000~F\000\000k\266\002\000\205F\000\000\207F\000\000\213F\000\000\215F\000\000\216F\000\000\217F\000\000\321\001\002\000\247F\000\000\255F\002\000\262F\000\000\270F\000\000\337\022\002\000\277F\000\000\336F\000\000%a\002\000\347F\000\000\363F\000\000\364F\000\000\366F\000\000\372F\000\000\003G\000\000\rG\000\000\020G\000\000\033G\000\000\034G\000\000#G\000\000$G\000\000&G\000\000HG\000\000LG\000\000NG\000\000eG\000\000fG\002\000kG\000\000oG\000\000~G\000\000\200G\000\000\243G\000\000\251G\002\000\255G\000\000\263G\002\000\303G\000\000\304G\002\000\242\266\002\000\322G\000\000\332G\002\000\335G\000\000\341G\002\000\351G\000\000\352G\000\000\353G\000\000\355G\002\000\360G\002\000\361G\002\000\362G\000\000\372G\002\000\020H\000\000\021H\000\000\025H\000\000\032H\000\000\033H\000\000#H\002\000;H\002\000=H\002\000BH\002\000FH\000\000IH\002\000NH\002\000WH\002\000[H\000\000bH\000\000cH\000\000gH\000\000mH\000\000qH\002\000wH\000\000xH\002\000zH\000\000\201H\002\000\202H\000\000\204H\000\000\216H\000\000\220H\002\000\225H\002\000\232H\000\000\233H\000\000\241H\000\000\245H\000\000qa\001\000\257H\000\000\262H\002\000\263H\000\000\264H\000\000\265H\002\000\266H\000\000\304H\000\000\325H\000\000\331H\000\000\342H\000\000\345H\002\000\367H\000\000\373H\000\000\376H\002\000\001I\000\000\004I\000\000\006I\002\000\nI\000\000\033I\000\000 I\002\000!I\002\000\"I\000\000#I\002\000,I\000\0000I\000\000;I\002\000?I\000\000MI\002\000OI\002\000\343\266\000\000XI\002\000^I\000\000_I\002\000cI\000\000fI\000\000kI\000\000pI\002\000uI\000\000xI\000\000\202I\002\000\203I\000\000\204I\000\000\210I\002\000\222I\000\000\224I\000\000\226I\002\000\234I\000\000\242I\000\000\243I\002\000\246I\000\000\253I\002\000\260I\000\000\265I\002\000\301I\000\000\306I\000\000\314I\000\000\347I\002\000\361I\002\000\362I\002\000\rJ\000\000\030J\000\000\031J\000\000\036J\002\000\"J\000\000*J\002\0003J\000\000:J\000\000=J\002\000AJ\000\000HJ\000\000IJ\000\000VJ\000\000WJ\000\000\\J\000\000bJ\000\000kJ\002\000sJ\000\000|J\000\000\202J\002\000\203J\000\000\206J\000\000\217J\000\000\221J\002\000\224J\000\000\233J\000\000\234J\000\000\247J\000\000\253J\002\000\263J\002\000\301J\002\000\303J\000\000\321J\002\000\324J\000\000\327J\002\000\356J\000\000\366J\002\000\371J\000\000\377J\000\000\010K\000\000\nK\002\000\rK\002\000\017K\002\000\032K\002\000\036K\000\000\"K\000\000\333a\000\000&K\002\0001K\000\000AK\002\000CK\000\000DK\000\000IK\000\000JK\002\000LK\000\000bK\000\000dK\000\000fK\002\000kK\000\000lK\000\000oK\002\000\202K\000\000\205K\000\000\214K\000\000\216K\000\000\221K\002\000\225K\000\000\240K\000\000\241K\002\000\270K\002\000\237\014\000\000\274K\000\000K\267\000\000\241\014\003\000\322K\000\000\324K\002\000\325K\000\000\331K\002\000\337K\002\000\341K\000\000\350K\000\000\353K\002\000\362K\000\000\366K\000\000\002L\002\000\003L\002\000\013L\000\000\020L\000\000\021L\000\000\025L\002\000\035L\002\000#L\002\0000L\002\0001L\000\0003L\002\0004L\002\0009L\000\000<L\002\000>L\002\000DL\000\000GL\002\000KL\002\000PL\002\000RL\002\000WL\000\000[L\000\000\\L\000\000`L\000\000dL\002\000fL\000\000hL\000\000pL\002\000\204L\000\000\211L\000\000\215L\002\000\216L\002\000\217L\000\000\222L\000\000\233L\000\000\251L\000\000\257L\000\000\300L\002\000\305L\002\000\306L\002\000\310L\000\000\316L\002\000\346L\002\000\351L\000\000\365L\002\000\366L\002\000\370L\002\000\374L\000\000\376L\000\000\003M\000\000\005M\000\000!M\000\000%M\000\000-M\000\0002M\000\0007M\002\0008M\000\000:M\002\000;M\002\000BM\002\000HM\000\000IM\000\000OM\000\000TM\002\000UM\002\000`M\000\000aM\002\000cM\002\000fM\002\000hM\002\000iM\000\000jM\002\000kM\000\000oM\000\000vM\002\000{M\002\000|M\002\000}M\000\000\200M\002\000\202M\000\000\203M\002\000\206M\002\000\213M\000\000\217M\000\000\234M\000\000\232\267\000\000\240M\000\000\262M\000\000\263M\000\000\264M\002\000\304M\002\000\306M\002\000\307M\000\000Mb\002\000\321M\000\000\326M\002\000\330M\002\000\331M\000\000\334M\000\000\337M\000\000Pb\002\000\343M\000\000\344M\000\000\345M\000\000\346M\000\000\374\014\000\000\371M\000\000\372M\000\000\003N\000\000\010N\000\000\013N\000\000\rN\000\000\037N\000\000+N\000\000/N\000\0006N\002\000:N\000\000=N\000\000EN\000\000GN\000\000ON\000\000UN\000\000VN\000\000[N\000\000\\N\002\000aN\000\000uN\002\000:5\002\000~N\000\000\200N\000\000\203N\000\000\210N\002\000\216N\002\000\220N\002\000\226N\000\000\233N\002\000\237N\000\000\241N\000\000\246N\002\000\247N\000\000\251N\000\000\276N\000\000\313N\000\000\336N\000\000\340N\002\000\342N\000\000\363N\000\000\366N\002\000\376N\000\000\000O\000\000\032O\000\000\035O\000\000+O\000\0005O\000\000?O\002\000BO\002\000CO\000\000HO\000\000LO\002\000^O\000\000bO\000\000pO\002\000rO\000\000yO\002\000}O\000\000A\r\002\000\214O\000\000\240O\000\000\252O\000\000\260O\002\000\273O\002\000\324O\000\000\337O\000\000\364O\000\000\365O\000\000\366O\000\000\367O\000\000\370O\000\000\374O\000\000\007P\000\000\024P\000\000\026P\000\000\034P\000\000,P\000\0005P\000\000AP\002\000HP\000\000JP\002\000KP\002\000TP\000\000WP\000\000\\P\000\000]P\000\000cP\000\000jP\000\000uP\002\000\024\270\002\000\177P\000\000\204P\000\000\231P\002\000\232P\000\000\237P\000\000\240P\000\000\243P\000\000\245P\000\000\246P\000\000\247P\000\000\254P\000\000\261P\000\000\270P\000\000\274P\000\000\277P\000\000\302P\000\000\324P\000\000\343P\000\000\355P\000\000\357P\000\000\365P\002\000\366P\000\000\373P\000\000\374P\002\000\375P\000\000\376P\000\000\003Q\002\000\004Q\000\000\006Q\000\000\nQ\000\000\017Q\002\000\022Q\002\000\025Q\000\000\026Q\002\000\031Q\002\000\035Q\000\000%Q\000\000*Q\000\000-Q\000\0006Q\002\000?Q\000\000IQ\000\000OQ\000\000UQ\002\000^Q\000\000bQ\002\000iQ\000\000tQ\002\000}Q\000\000\203Q\000\000\214Q\000\000\216Q\002\000\230Q\000\000\231Q\002\000\234Q\000\000\245Q\000\000\265Q\002\000\271Q\000\000\272Q\002\000\301Q\002\000\305Q\002\000L\270\000\000\314Q\000\000\315Q\002\000\327Q\000\000\335Q\000\000\350Q\000\000\351Q\000\000\354Q\000\000\364Q\002\000\372Q\000\000\006R\000\000\014R\000\000\016R\002\000\020R\000\000\"R\002\000(R\000\000.R\000\0000R\000\0001R\000\000:R\002\000=R\000\000KR\000\000[R\000\000^R\000\000_R\002\000hR\000\000iR\002\000lR\000\000pR\002\000|R\000\000\202R\000\000\204R\000\000\207R\000\000\211R\000\000\217R\000\000\221R\002\000\223R\000\000\224R\000\000\225R\002\000\242R\000\000\257R\000\000\261R\000\000\265R\002\000\266R\000\000\270R\000\000\305R\000\000\311R\000\000\315R\000\000\353R\002\000\354R\002\000\322\r\002\000\357R\000\000\363R\000\000\325\r\002\000\200\270\000\000\tS\002\000\021S\000\000\030S\000\000\033S\000\000(S\000\0005S\000\0009S\000\000?S\002\000FS\000\000OS\002\000XS\002\000[S\002\000\\S\000\000]S\000\000hS\000\000iS\002\000mS\002\000\207S\000\000\221S\000\000\223S\002\000\236S\000\000\237S\000\000\251S\000\000\252S\000\000\253S\000\000\264S\000\000\267S\002\000\270S\000\000\317S\002\000\332S\000\000\336S\000\000\342S\002\000\346S\002\000\347S\002\000\350S\002\000\355S\002\000\357S\000\000\361S\000\000Sc\000\000\371S\000\000\000T\002\000\005T\002\000\017T\000\000\022T\000\000\027T\000\000!T\000\000#T\000\000.T\000\000/T\000\0000T\000\000IT\000\000PT\002\000XT\000\000YT\002\000_T\000\000\021\016\003\000sT\000\000wT\000\000zT\000\000}T\000\000\201T\002\000\205T\000\000\207T\002\000\222T\000\000\226T\000\000\241T\002\000\250T\000\000\267T\000\000\272T\002\000\273T\000\000\275T\002\000\304T\000\000\306T\002\000\307T\002\000\321T\002\000\324T\002\000\326T\000\000\344T\000\000\357T\000\000\360T\002\000\361T\002\000\363T\000\000\370T\002\000*\016\002\000\000U\002\000\004U\002\000\006U\000\000\nU\000\000\014U\002\000\rU\000\000\030U\000\000\034U\000\000 U\000\000$U\000\000%U\000\0005U\000\0007U\000\0008U\002\000:U\000\000>U\000\000AU\000\000DU\002\000JU\000\000OU\000\000aU\002\000eU\000\000gU\000\000oU\000\000xU\000\000yU\000\000{U\000\000\177U\002\000\200U\000\000\205U\000\000A\016\001\000\210U\000\000\221U\000\000\226U\000\000\234U\000\000\237U\002\000\240U\000\000\244U\000\000\246U\000\000\250U\000\000\262U\000\000\271U\000\000\277U\000\000\307U\002\000\314U\002\000\315U\002\000\323U\002\000\335U\002\000\336U\002\000\357U\002\000\360U\002\000\376U\000\000\006V\000\000\tV\000\000\024V\000\000\026V\002\000\027V\002\000&V\000\000\'V\002\000*V\000\0004V\002\000:V\000\000BV\002\000QV\000\000ZV\002\000pV\000\000rV\000\000uV\000\000i\016\003\000{V\000\000\201V\002\000\213V\000\000\233V\000\000\240V\000\000\242V\000\000\253V\000\000\254V\000\000\257V\002\000\266V\000\000\275V\000\000\277V\002\000\314V\000\000\320V\000\000\325V\000\000\332V\000\000\342V\000\000\343V\000\000\352V\000\000\357V\000\000\374V\002\000\001W\000\000\007W\000\000\027W\002\000\036W\000\000 W\000\000$W\000\0002W\002\0009W\000\000;W\000\000EW\000\000MW\000\000`W\002\000iW\000\000jW\000\000wW\000\000yW\002\000\207W\000\000\217W\002\000\227W\000\000\240W\000\000\241W\000\000\263W\002\000\266W\000\000\275W\000\000\302W\000\000\303W\000\000\305W\000\000\307W\002\000\333W\000\000\334W\002\000\335W\002\000\337W\000\000\346W\000\000\350W\000\000\356W\000\000\361W\002\000\371W\000\000\373W\000\000\376W\000\000\377W\000\000\003X\002\000\004X\000\000\006X\000\000\016X\000\000\022X\000\000\026X\000\000\033X\000\000%X\002\000)X\000\000Gz\000\0007X\002\0009X\002\000;X\002\000@X\000\000AX\000\000EX\002\000GX\002\000HX\000\000LX\000\000NX\002\000UX\000\000WX\000\000aX\000\000eX\000\000gX\000\000pX\000\000}X\000\000~X\002\000\200X\000\000\211X\000\000\213X\002\000\214X\002\000\215X\000\000\224X\000\000\227X\000\000\237X\000\000\241X\000\000\244X\000\000\256X\000\000\257X\000\000\261X\002\000\266X\000\000\274X\002\000\276X\000\000\302X\000\000\304X\000\000\314\016\003\000\313X\002\000\327X\002\000\330X\000\000\335X\002\000Mz\000\000\344X\000\000\345X\000\000\321\016\003\000\376X\002\000\006Y\002\000\013Y\002\000\rY\002\000\016Y\000\000\022Y\000\000\023Y\000\000\027Y\002\000\031Y\000\000\032Y\002\000\034Y\000\000\035Y\002\000\037Y\002\000$Y\000\000\'Y\000\000+Y\002\0003d\000\000>Y\000\000AY\002\000BY\002\000DY\002\000NY\002\000UY\000\000WY\000\000XY\000\000ZY\000\000]Y\000\000`Y\002\000dY\000\000oY\000\000qY\000\000\200Y\000\000\205Y\000\000\216Y\000\000\217Y\002\000\230Y\002\000\233Y\000\000\242Y\002\000\253Y\002\000\255Y\000\000;X\000\000\303Y\000\000\304Y\002\000\314Y\000\000\321Y\000\000\324Y\002\000\333Y\000\000\341Y\000\000\342Y\002\000\344Y\000\000\347Y\000\000\351Y\000\000Vz\000\000\357Y\000\000\360Y\000\000\361Y\002\000\024Z\000\000\026Z\000\000\032Z\000\000\037Z\002\000%Z\000\0005Z\000\000;Z\000\000CZ\000\000EZ\000\000GZ\000\000JZ\002\000MZ\002\000NZ\000\000PZ\000\000VZ\000\000[Z\000\000pZ\000\000rZ\000\000tZ\000\000vZ\002\000wZ\000\000zZ\000\000}Z\000\000\201Z\000\000\206Z\000\000\215Z\000\000\216Z\000\000\234Z\000\000\235Z\002\000\241Z\002\000\245Z\000\000\253Z\000\000\254Z\000\000\256Z\000\000\262Z\000\000\264Z\000\000\270Z\002\000\275Z\000\000\316Z\000\000\324Z\000\000\330Z\000\000\331Z\000\000\337Z\000\000\347Z\000\000\370Z\000\000\010[\000\000\r[\000\000\025[\002\000\031[\000\000\036[\000\000%[\000\0007[\000\0009[\000\000=[\000\000F[\002\000O[\002\000l[\000\000\200[\002\000\201[\002\000\210[\002\000\214[\002\000\216[\000\000\225[\000\000\231[\002\000\234[\002\000\236[\002\000\241[\000\000\246[\000\000\251[\000\000\254[\000\000\260[\000\000\261[\000\000\274[\000\000\276[\000\000\277[\000\000\302[\002\000\303[\000\000\311[\000\000\313[\000\000\320[\000\000\325[\000\000\331[\000\000\333[\000\000\334[\000\000\343[\000\000\344[\000\000\n\\\002\000\013\\\002\000+\\\000\000-\\\002\0003\\\002\0006\\\002\000B\\\000\000S\023\003\000\\\\\002\000^\\\000\000o\\\002\000x\\\000\000\203\\\000\000\211\\\002\000m\017\003\000\220\\\002\000\223\\\000\000\231\\\000\000o\017\003\000\244\\\000\000\263\\\000\000\270\\\000\000\271\\\000\000\274\\\000\000\311\\\002\000\313\\\002\000\314\\\000\000\326\\\000\000\346\\\000\000\352\\\000\000\363\\\000\000\367\\\000\000\372\\\002\000\376\\\000\000\001]\002\000\002]\002\000\003]\000\000\007]\000\000*]\002\000>]\000\000?]\000\000B]\000\000D]\000\000M]\000\000W]\000\000[]\002\000\\]\000\000a]\000\000e]\000\000g]\002\000m]\000\000n]\002\000q]\000\000s]\000\000y]\000\000z]\000\000\201]\000\000\210]\000\000\213]\000\000\244]\000\000\253]\002\000\257]\000\000\261]\000\000\307]\000\000\320]\000\000\324]\000\000\334]\002\000\352]\002\000\354]\000\000\355]\002\000\356]\000\000\357]\000\000\365]\000\000U\272\001\000\005^\000\000\006^\002\000\t^\002\000\021^\002\000\024^\002\000\030^\000\000\034^\000\000(^\002\000-^\000\0005^\000\000I^\002\000J^\002\000K^\000\000N^\002\000Q^\002\000T^\002\000W^\000\000\\^\000\000^^\000\000`^\000\000c^\000\000n^\002\000q^\002\000t^\002\000x^\002\000|^\002\000~^\002\000\220^\000\000\225^\002\000\232^\000\000\234^\002\000\242^\000\000\245^\000\000\250^\002\000\252^\000\000\257^\002\000\261^\002\000\263^\002\000\265^\000\000\270^\000\000\271^\002\000\272^\002\000\274^\000\000\276^\002\000\300^\002\000\301^\002\000\302^\000\000\303^\000\000\305^\002\000\315^\002\000\317^\002\000\321^\002\000\332^\002\000\341^\000\000\344^\000\000\350^\002\000\363^\002\000\370^\000\000\002_\002\000\005_\002\000\n_\002\000\327\017\002\000\023_\000\000\026_\002\000\032_\000\000\033_\002\000)_\000\000/_\000\0007_\000\0009_\000\000<_\000\000=_\000\000B_\000\000G_\002\000V_\002\000W_\000\000Z_\000\000q_\000\000v_\000\000\200_\002\000\211_\000\000\214_\000\000\216_\002\000\232_\000\000\233_\000\000\241_\000\000\246_\000\000\253_\000\000\261_\000\000\300_\002\000\311_\002\000\312_\000\000\317_\002\000\322_\000\000\335_\000\000\340_\000\000\344_\000\000\371_\000\000\010`\002\000\n`\000\000 `\002\000$`\000\000&`\000\000\'`\002\000,`\002\000-`\000\000@`\002\000B`\000\000\313\317\000\000\\`\002\000b`\002\000d`\000\000e`\000\000j`\002\000o`\002\000q`\000\000r`\002\000s`\000\000y`\002\000|`\002\000}`\002\000\201`\002\000\207`\002\000\210`\002\000\217`\002\000\220`\002\000\225`\000\000\227`\000\000\230`\002\000\233`\002\000\236`\000\000\237`\002\000\242`\002\000\244`\002\000\245`\000\000\254`\002\000\257`\000\000\262`\000\000\264`\000\000\270`\002\000\271`\002\000\272`\002\000\274`\002\000\275`\002\000\301`\002\000\302`\002\000\304`\002\000\305`\002\000\306`\002\000\316`\002\000\321`\002\000\323`\002\000\332`\000\000\340`\002\000\345`\002\000\346`\000\000\353`\002\000\361`\002\000\363`\000\000\365`\000\000\376`\002\000\005a\002\000\010a\000\000\021a\002\000\022a\000\000\033a\002\000!a\002\000%a\000\000)a\000\000,a\002\0006a\002\000=a\002\000Aa\000\000Da\000\000Fa\002\000Ga\002\000Qa\002\0009\020\003\000ba\002\000la\002\000oa\000\000pa\000\000sa\002\000za\000\000}a\000\000\205a\002\000\210a\002\000\211a\002\000\215a\002\000\216a\000\000\217a\002\000\233e\000\000\250a\002\000\251a\002\000\262a\000\000\263a\002\000\267a\002\000\273a\002\000\276a\000\000\304a\000\000\243e\000\000\324a\002\000\325a\000\000\333a\002\000\334a\000\000\343a\000\000\344a\002\000\345a\002\000\350a\000\000\362a\002\000\374a\000\000\376a\002\000\001b\000\000\016b\000\000\021b\000\000\022b\002\000\024b\000\000\025b\002\000\027b\002\000\033b\000\000\"b\002\000%b\000\000.b\000\0004b\000\0005b\002\0006b\002\000Ib\000\000Mb\000\000Pb\000\000Sb\002\000Xb\002\000bb\002\000eb\000\000kb\002\000mb\002\000nb\002\000}b\002\000\216b\000\000\267b\002\000\272b\000\000\274b\002\000\275b\002\000\307b\002\000\317b\002\000\330b\000\000\331b\002\000\333b\002\000\335b\000\000\337b\000\000\340b\000\000\342b\000\000\363b\000\000\370b\000\000\372b\000\000\014c\002\000\017c\000\000\020c\000\0000c\002\0004c\002\0006c\000\000:c\000\000;c\000\000\212\020\003\000Ac\000\000Cc\000\000Gc\000\000Lc\000\000Pc\000\000Sc\002\000Yc\000\000Zc\000\000\\c\002\000^c\002\000`c\000\000ec\000\000fc\002\000lc\000\000xc\000\000\200c\000\000\201c\000\000\210c\000\000\224c\000\000\226c\002\000\232c\002\000\234c\002\000\235c\002\000\256c\000\000\261c\000\000\266c\000\000\331c\002\000\336c\000\000\347c\000\000\350c\000\000\354c\000\000\356c\000\000\364c\000\000\370c\000\000\375c\002\000\nd\000\000\013d\002\000\035d\000\000(d\002\000-d\000\000.d\002\000\263\020\001\0004d\002\0007d\000\0009d\002\000<d\000\000@d\000\000Bd\000\000Pd\000\000Sd\000\000Zd\002\000`d\002\000fd\000\000jd\002\000ld\000\000od\000\000qd\002\000xd\000\000\203d\000\000\216d\002\000\222d\000\000\223d\000\000\225d\000\000\226d\000\000\230d\000\000\231d\000\000\235d\000\000\242d\000\000\251d\000\000\253d\000\000\256d\002\000\260d\000\000\274d\000\000\304d\000\000\312d\000\000\314d\000\000\323d\000\000\337d\000\000\340d\000\000\342d\000\000\353d\000\000\361d\000\000\363d\000\000\365d\000\000\373d\000\000\326\020\000\000\006e\000\000\010e\000\000\024e\000\000\030e\000\000\034e\000\000\035e\000\000\036e\002\000!e\000\000$e\000\0001f\002\000*e\000\000+e\000\0004e\000\000<e\000\000De\000\000Ee\000\000Ke\000\000Me\000\000Oe\000\000Qe\000\000Re\000\000We\000\000Ye\000\000`e\000\000ee\000\000he\000\000ie\000\000ke\000\000me\000\000ve\000\000we\000\000~e\000\000\207e\000\000\212e\000\000\221e\000\000\224e\000\000\357\020\003\000\240e\000\000\233\273\002\000\245e\000\000\252e\000\000\330e\002\000\332e\000\000\360e\002\000\003f\002\000\032f\000\000*f\000\0000f\002\000\010\021\003\000Af\002\000If\002\000kf\002\000lf\002\000mf\002\000vf\000\000wf\000\000zf\002\000\201f\002\000\220f\000\000\226f\000\000\227f\000\000\233f\000\000\241f\000\000\255f\000\000\256f\002\000\257f\000\000\262f\002\000\274f\000\000\312f\002\000\325f\002\000\330f\002\000\337f\000\000\006g\002\000\037g\002\000*g\000\000.g\000\0001g\002\0006g\002\0007g\002\000Ag\002\000Hg\002\000Kg\002\000[g\002\000`g\000\000lg\000\000mg\000\000pg\002\000qg\000\000\201g\000\000\204g\000\000\214g\002\000\220g\000\000\222g\000\000\226g\000\000\230g\002\000\231g\000\000\234g\002\000\247g\000\000\270g\002\000\275g\000\000\305g\000\000\335g\000\000\336g\002\000\343g\000\000\345g\000\000\351g\002\000\373g\000\000\005h\002\000\006h\002\000\255f\002\000\034h\000\000\036h\002\000%h\002\000\262f\000\000/h\000\0000h\000\0008h\000\000@h\002\000Gh\000\000Qh\000\000[h\000\000_h\002\000`h\000\000jh\002\000th\000\000\215h\000\000\223h\000\000\237h\000\000\250h\000\000\263h\000\000\036\274\002\000\303h\000\000\307h\002\000\311h\002\000\323h\000\000\327h\002\000\334h\000\000\335h\000\000\337h\002\000\343h\000\000\352h\000\000\360h\002\000\361h\002\000\363h\002\000\365h\000\000\367h\000\000\370h\002\000\002i\000\000.\274\002\000\035i\000\000 i\000\000\'i\002\000*i\002\000,i\000\0005i\002\0008i\000\000?i\000\000Ei\002\000Ki\000\000Wi\000\000Zi\000\000ci\000\000di\002\000ji\000\000qi\002\000ti\000\000ui\000\000wi\000\000~i\000\000\203i\000\000\205i\002\000\212i\000\000\213i\002\000\216i\000\000\223i\000\000\226i\002\000\227i\002\000\230i\000\000\241i\002\000\242i\002\000\252i\000\000\256i\002\000\301i\000\000\302i\000\000\314i\002\000\324i\002\000\326i\000\000\330i\000\000\334i\000\000\245\021\003\000\355i\002\000\377i\002\000\005j\002\000\020j\002\000\032j\000\000#j\002\000.j\000\000/j\002\000:j\000\000Cj\000\000Fj\002\000Hj\002\000sj\000\000zj\002\000\207j\000\000\216j\000\000\223j\000\000\227j\002\000\235j\000\000\250j\000\000\257j\000\000\264j\000\000\271j\000\000\273j\000\000\313j\000\000\316j\000\000\362j\002\000\366j\000\000\370j\000\000\373j\000\000\374j\000\000\007k\000\000\013k\002\000\020k\000\000\030k\000\000\033k\002\000+k\000\0002k\002\0004k\000\0007k\002\000Bk\000\000\\k\000\000dk\000\000hk\002\000\227k\000\000\231k\000\000\233k\000\000\237k\000\000\251k\000\000\265k\002\000\304k\000\000\322k\000\000\333k\002\000\336k\000\000\337k\000\000\374k\000\000\013l\000\000\033l\000\000\036l\000\000&l\000\0003l\000\0004l\000\000=l\000\000?l\000\000`g\002\000\r\022\001\000Rl\000\000cl\002\000ll\002\000nl\000\000tl\002\000\276\274\002\000yl\002\000~l\000\000\213l\002\000\221l\000\000\231l\002\000\233l\002\000\236l\002\000\253l\000\000\257l\000\000\265l\002\000\270l\000\000\311l\002\000\324l\002\000\325l\002\000\327l\002\000\333l\002\000\335l\002\000\337l\002\000\341l\002\000\347l\002\000\354l\002\000\377l\002\000\004m\002\000\010m\002\000\023m\002\000\031m\002\000\032m\002\000\034m\002\000$m\002\000)m\002\000*m\002\000-m\002\000.m\002\000;m\002\000=m\000\000@m\002\000Mm\002\000Nm\002\000`m\002\000bm\000\000cm\002\000km\002\000um\002\000|m\002\000\202m\002\000\207m\002\000\211m\002\000\213m\002\000\217m\002\000\220m\002\000\224m\002\000\240m\000\000\250m\000\000V\362\000\000\261m\002\000\262m\000\000\363\274\000\000\265m\002\000\300m\002\000\304m\002\000\307m\002\000\311m\000\000\312m\000\000\315m\000\000\317m\000\000\330m\000\000\335m\002\000P\022\003\000\344m\002\000\370m\002\000\376m\000\000\377m\000\000\021n\000\000\024n\002\000\025n\000\000\030n\002\000\033n\002\000\036n\002\000!n\000\000\"n\002\000\'n\000\000*n\002\0008n\002\0009n\002\000<n\000\000>n\002\000Cn\002\000Dn\000\000]n\002\000hn\000\000mn\002\000nn\002\000|n\000\000}n\000\000\203n\000\000\204n\000\000\205n\002\000\223n\000\000\225n\002\000\227n\002\000\235n\002\000\241n\002\000d\024\003\000\256n\002\000\266n\002\000t\022\003\000\273n\002\000\274n\000\000\302n\002\000\303n\002\000\304n\000\000\324n\000\000\332n\000\000\350n\000\000ti\002\000\355n\000\000\362n\000\000\367n\000\000\374n\000\000\005o\002\000\010o\002\000\to\000\000\no\002\000\014o\002\000\016o\000\000\021o\002\000\022o\002\000\024o\000\000\025o\000\000\027o\000\000\036o\002\000 o\002\000\"o\000\000%o\000\000)o\000\0004o\000\0007o\000\000;o\000\000>o\002\000Co\002\000Eo\002\000Fo\000\000Io\000\000Ko\000\000Oo\002\000Po\000\000Qo\000\000]o\000\000fo\000\000mo\000\000no\002\000xo\000\000}o\000\000\201o\000\000\206o\000\000\223o\000\000\230o\000\000\244o\000\000\246o\000\000\247o\000\000\250o\000\000\256o\000\000\274o\000\000\301o\002\000\303o\000\000\304o\002\000\306o\000\000\307o\000\000\316o\000\000\320o\000\000\354o\000\000\355o\000\000\363o\000\000\364o\002\000\tp\002\000\rp\002\000\027p\002\000\030p\000\000\035p\002\000\037p\002\000&p\000\0002p\002\0004p\002\0006p\002\0007p\000\0008p\002\0009p\002\000:p\000\000=p\002\000@p\002\000Ep\000\000Hp\000\000Ip\000\000Kp\002\000Up\002\000Yp\002\000]p\002\000bp\000\000gp\000\000jp\002\000\207p\002\000\211p\002\000\214p\002\000\221p\000\000\222p\000\000\234p\002\000\242p\002\000\251p\000\000\257p\000\000\261p\002\000\263p\002\000\036h\000\000\266p\002\000\267p\002\000\302p\002\000\304p\002\000\306p\002\000\310p\002\000\315p\002\000\316p\002\000\324p\000\000\333p\002\000\337p\002\000\345p\002\000\350p\002\000\361p\002\000\365p\002\000\324\022\003\000\000q\002\000\rq\000\000\022q\002\000\026q\002\000\033q\002\000\035q\002\000\'q\002\000)q\002\000,q\000\0003q\002\0005q\002\000;q\002\000Aq\002\000Fq\000\000Zq\002\000fq\002\000gq\002\000kq\002\000mq\002\000pq\002\000qq\002\000|q\002\000~q\002\000\202q\002\000\203q\000\000\211q\002\000\216q\000\000\372G\000\000\224q\000\000\225q\002\000\240q\000\000\241q\000\000\244q\002\000\260q\002\000\261q\000\000\266q\002\000\276q\002\000\321q\002\000\336q\002\000\340q\000\000\351q\000\000\364q\002\000\365q\002\000\366q\002\000\375q\002\000\004r\002\000\007r\002\000\010r\000\000\013r\000\000\rr\002\000\017r\002\000\256\275\000\000\027r\002\000!r\000\000#r\000\000&r\002\000+r\000\000/r\002\0008r\002\000<r\002\000Hr\000\000Nr\002\000\270\275\002\000Wr\002\000Yr\000\000Zr\002\000ar\000\000dr\002\000er\000\000gr\002\000nr\002\000pr\000\000\023\023\003\000xr\000\000{r\002\000\201r\000\000\220r\002\000\221r\002\000\244r\000\000\256r\000\000\260r\002\000\266r\002\000\270r\002\000\272r\002\000\306r\002\000\311r\000\000\314r\000\000\330r\002\000\340r\002\000\344r\002\000\347r\002\000\353r\000\000\361r\000\000\362r\002\000\364r\000\000\376r\000\000\000s\000\000\ns\002\000\021s\000\000\022s\000\000\030s\002\000\034s\002\000#s\002\000-s\002\0000s\002\0002s\000\000=s\002\000>s\000\000Ks\000\000Ws\002\000rs\002\000ss\000\000xs\002\000ys\002\000\201s\002\000\202s\000\000\222s\000\000\225s\002\000\226s\000\000\236s\002\000\244s\002\000\250s\000\000\262s\000\000\266s\000\000\270s\000\000\273s\000\000\274s\000\000\306s\002\000\310s\002\000\317s\002\000\336s\000\000\345s\002\000\346s\002\000\352s\000\000\353s\002\000\354s\000\000\355s\000\000\361s\002\000\362s\000\000\363s\002\000\370s\002\000\372s\002\000\000t\002\000\001t\000\000\002t\002\000\004t\000\000\nt\000\000\rt\002\000\027t\002\000 t\002\000$t\000\000\'t\002\000,t\002\0004t\000\0009t\002\000;t\002\000=t\000\000?t\002\000Ct\000\000Et\002\000Gt\002\000Jt\000\000Lt\002\000Rt\002\000Tt\002\000Ut\002\000Yt\000\000[t\000\000ft\000\000gt\000\000zt\002\000\203t\000\000\205t\000\000\211t\002\000\212t\002\000\227t\000\000\233t\000\000\235t\000\000\253t\002\000\261t\002\000\263t\002\000\265t\000\000\267t\000\000\270t\000\000\273t\000\000\276t\000\000\300t\002\000\304t\000\000\317t\000\000\324t\000\000\327t\000\000\330t\000\000\332t\000\000\335t\002\000\341t\002\000\352t\000\000\353t\002\000\360t\002\000\361t\002\000\362t\002\000\365t\000\000\367t\002\000\006u\002\000\007u\002\000\010u\002\000\tu\002\000\013u\002\000\ru\000\000\016u\000\000\024u\000\000\033u\002\000\037u\002\000 u\000\000!u\000\000$u\000\000&u\000\000+u\000\000:u\000\000;u\000\000Eu\002\000Iu\002\000Ku\002\000Su\000\000Xu\000\000^u\002\000au\002\000bu\002\000du\002\000hu\002\000nu\002\000uu\002\000vu\000\000xu\002\000|u\000\000\201u\002\000\226\023\003\000\210u\002\000\241u\002\000\247u\002\000\261u\000\000\266u\002\000\272u\002\000\303u\002\000\306u\000\000\317u\002\000\324u\002\000\326u\002\000\337u\002\000\340u\002\000\341u\002\000\342u\002\000\343u\002\000\357u\002\000\363u\002\000\365u\002\000\370u\000\000\377u\002\000\000v\000\000\010v\002\000\tv\002\000\014v\002\000\023v\000\000\024v\002\000\032v\000\000!v\000\000\"v\002\000$v\002\000/v\002\0008v\000\000:v\000\000Bv\002\000Qv\000\000`v\002\000dv\000\000ev\002\000gv\002\000jv\002\000nv\002\000zv\002\000}v\002\000\203v\002\000\204v\002\000\206v\000\000\207v\002\000\210v\000\000\212v\000\000\216v\002\000\220v\000\000\230v\000\000\233v\002\000\236v\000\000\242v\002\000\243v\000\000\245v\000\000\250v\000\000\261v\002\000\262v\002\000\266v\000\000\267v\000\000\277v\000\000\301v\002\000\302v\002\000\305v\002\000\310v\002\000\311v\000\000\312v\002\000\315v\002\000\317v\000\000\321v\002\000\322v\000\000\340v\002\000\345v\000\000\346v\002\000\351v\002\000\356v\000\000\360v\000\000\370v\002\000\376v\002\000\000w\002\000\003w\002\000\006w\002\000\007w\002\000\013w\002\000\020w\002\000\025w\000\000*w\000\0005w\002\0008w\000\000@w\000\000Ew\000\000Nw\000\000Ww\000\000`w\002\000gw\002\000iw\000\000ww\000\000xw\002\000\225\276\002\000\205w\000\000\206w\002\000\212w\002\000\213w\002\000\356\023\003\000\230w\002\000\236w\000\000\237w\002\000\254w\002\000\256w\002\000\260w\002\000\261w\002\000\262w\000\000\263w\002\000\265w\002\000\274w\002\000\276w\002\000\306w\002\000\311w\002\000\322w\002\000\326w\002\000\327w\002\000\335w\000\000\356w\002\000\357w\002\000\361w\000\000\371w\002\000\372w\000\000\374w\002\000\375w\002\000\377w\002\000\002x\002\000\004x\002\000\013x\000\000\033x\002\000\037x\000\000!x\002\000#x\002\0002x\002\0006x\000\000@x\000\000Bx\000\000Cx\002\000Kx\000\000Lx\000\000Tx\002\000^x\002\000fx\002\000hx\002\000qx\000\000rx\002\000tx\002\000vx\002\000\204x\002\000\212x\000\000\214x\002\000\216x\002\000\217x\002\000\224x\002\000\231x\000\000\235x\000\000\242x\002\000\244x\000\000\245x\002\000\247x\002\000\265x\000\000\267x\000\000\271x\002\000\336x\002\000\343x\002\000\353x\002\000\357x\002\000\000y\002\000\001y\002\000\002y\000\000\003y\002\000\007y\002\000\ty\002\000\013y\002\000\014y\002\000\022y\002\000\025y\002\000\030y\002\000\033y\000\000\034y\002\000\036y\002\000 y\000\000+y\000\000.y\002\0001y\002\000@y\002\000Fy\000\0008\024\003\000Uy\002\000Vy\002\000Zy\002\000[y\002\000ay\002\000iy\000\000oy\002\000py\002\000qy\000\000xy\002\000zy\002\000{y\000\000|y\002\000~y\002\000\212y\002\000\251y\002\000\260y\002\000\264y\000\000\273y\000\000\274y\000\000\275y\002\000\300y\002\000\317y\002\000\320y\002\000\321y\002\000\322y\002\000\324y\002\000\326y\000\000\335y\002\000\341y\002\000\345y\002\000\355y\000\000\357y\002\000\370y\002\000\373y\002\000\374y\002\000\376y\002\000\001z\002\000\003z\002\000\010z\002\000\nz\002\000\014z\002\000\017z\002\000\034z\002\000\036z\002\000!z\002\000#z\000\000%z\002\000&z\002\000+z\000\000,z\002\000/z\002\0008z\002\0009z\000\000:z\002\000>z\002\000@z\002\000Az\000\000Gz\002\000Iz\000\000Lz\002\000Mz\002\000Oz\000\000Qz\002\000Rz\000\000Vz\002\000Yz\002\000Zz\002\000[z\002\000]z\002\000_z\002\000gz\002\000lz\002\000oz\002\000pz\002\000qz\002\000rz\002\000wz\002\000\200z\000\000\202z\000\000\205z\002\000\206z\002\000\213z\002\000\241z\000\000\250z\002\000\255z\000\000\261z\000\000\267z\000\000\273z\002\000\274z\000\000\316z\000\000\331z\002\000\336z\000\000\364z\000\000\376z\000\000\026{\000\000\205\024\002\000\'{\000\0008{\000\000<{\000\000B{\002\000C{\002\000D{\002\000M{\002\000V{\002\0009\277\002\000Y{\000\000p{\002\000u{\000\000x{\002\000z{\002\000|{\002\000\201{\000\000\230{\000\000\231{\000\000\234{\000\000\232\024\003\000\237{\000\000\245{\000\000\252{\000\000\260{\000\000\272{\000\000\300{\000\000\312{\000\000\324{\000\000\343{\000\000\344{\000\000\347{\000\000\366{\000\000\370{\002\000\373{\000\000\003|\000\000\007|\000\000\010|\000\000\t|\000\000\014|\000\000\016|\000\000;|\000\000=|\000\000>|\000\000I|\000\000Q|\002\000R|\002\000S|\000\000T|\000\000V|\000\000[|\000\000_|\000\000a|\000\000e|\002\000m|\000\000n|\000\000p|\000\000q|\000\000x|\000\000\201|\000\000\210|\002\000\211|\000\000\214|\000\000\221|\000\000\225|\002\000\231|\002\000\250|\002\000\252|\002\000\256|\000\000\276|\002\000\277|\002\000\301|\002\000\317|\000\000\322|\002\000\316\024\003\000\333|\000\000\345|\002\000\351|\002\000\355|\002\000\014}\000\000\017}\000\000\020}\000\000\021}\002\000!}\000\000\"}\000\000&}\000\0001}\000\000E}\000\000M}\000\000R}\000\000]}\000\000v}\000\000\205}\000\000\206}\002\000\220}\000\000\226}\000\000\240}\002\000\242}\000\000\243}\000\000\257}\002\000Hj\000\000\265}\000\000\267}\000\000\270}\002\000\273}\002\000\276}\002\000\277}\002\000\302}\002\000\317}\000\000\321}\000\000\323}\002\000\326}\000\000\332}\000\000\335}\002\000\343}\002\000\354}\002\000\365}\002\000\371}\000\000\373}\002\000\000~\000\000\002~\000\000\006~\002\000\r~\000\000\032~\002\000!~\000\000(~\002\000.~\000\000/~\000\000:~\002\000>~\000\000?~\000\000@~\000\000G~\000\000K~\002\000Q~\000\000U~\002\000b~\000\000j~\002\000k~\002\000n~\000\000o~\000\000r~\002\000s~\002\000x~\000\000~~\000\000\203~\002\000\206~\002\000\211~\002\000\221~\002\000\226~\000\000\241~\002\000\245~\002\000\250~\002\000\256~\000\000\264~\002\000\273~\000\000\276~\000\000\302~\002\000\306~\002\000\313~\002\000\346~\002\000\347~\000\000\351~\000\000\360~\000\000\363~\000\000\365~\000\000\367~\002\000\373~\002\000\374~\002\000\005\177\002\000\007\177\002\000\022\177\002\000\025\177\002\000\027\177\000\000\032\177\002\000\034\177\002\000#\177\000\000*\177\000\0001\177\000\000;\177\002\000@\177\000\000E\177\000\000H\177\000\000S\177\002\000X\177\000\000Y\177\000\000[\177\000\000\\\177\002\000a\177\000\000b\177\000\000c\177\002\000e\177\002\000j\177\000\000p\177\002\000q\177\000\000u\177\000\000\212\177\002\000\217\177\002\000\220\177\000\000\232\177\000\000\234\177\000\000\241\177\000\000\243\177\000\000\246\177\000\000\247\177\000\000\266\177\000\000\303\177\002\000\304\177\002\000\311\177\002\000\313\177\002\000\323\177\002\000\326\177\000\000\330\177\002\000\331\177\000\000\332\177\000\000\336\177\002\000\341\177\000\000\346\177\000\000\347\177\002\000\353\177\000\000\365\177\002\000\377\177\002\000\000\200\000\000\010\200\002\000\n\200\000\000\014\200\002\000\016\200\002\000\017\200\000\000\025\200\000\000\030\200\002\000!\200\002\000\"\200\000\000#\200\000\000)\200\000\000+\200\002\0001\200\000\0002\200\002\0007\200\000\000c\200\000\000e\200\000\000m\200\000\000r\200\000\000u\200\002\000x\200\000\000y\200\000\000{\200\000\000|\200\002\000~\200\000\000\203\200\002\000\207\200\002\000\215\200\000\000\223\200\000\000\231\200\000\000\255\200\000\000\257\200\000\000\267\200\000\000\275\200\000\000\276\200\002\000\303\200\000\000\326\200\002\000\332\200\002\000\335\200\000\000\341\200\000\000\347\200\002\000\351\200\000\000\370\200\002\000\376\200\000\000\003\201\002\000\006\201\002\000\n\201\002\000\037\201\000\000+\201\000\0002\201\000\0003\201\000\0008\201\002\000>\201\000\000?\201\000\000D\201\000\000G\201\000\000T\201\000\000Z\201\000\000[\201\002\000`\201\002\000c\201\002\000d\201\002\000g\201\000\000|\201\002\000\203\201\000\000\204\201\000\000\207\201\002\000\214\201\000\000\223\201\000\000\226\201\002\000\231\201\000\000\237\201\000\000\240\201\000\000\243\201\002\000\256\201\000\000\263\201\002\000\310\201\000\000\311\201\000\000\317\201\000\000\332\201\000\000\335\201\000\000\336\201\002\000\352\201\000\000\356\201\000\000\365\201\002\000\376\201\002\000\377\201\000\000\004\202\000\000\005\202\002\000\014\202\002\000\017\202\000\000\023\202\000\000\004\363\000\000\032\202\000\000\033\202\000\000\034\202\000\000\036\202\002\0009\202\002\000;\202\000\000<\202\000\000=\202\000\000H\202\000\000L\202\000\000N\202\002\000Q\202\002\000T\202\000\000]\202\000\000`\202\000\000a\202\002\000d\202\002\000e\202\002\000i\202\000\000r\202\002\000s\202\000\000t\202\000\000x\202\002\000y\202\000\000{\202\002\000}\202\002\000\207\202\000\000\222\202\002\000\224\202\000\000\234\202\000\000\235\202\000\000\242\202\000\000\243\202\000\000\256\202\000\000\304\202\002\000\305\202\000\000\306\202\000\000\307\202\002\000\313\202\002\000\340\202\000\000\346\202\000\000\373\202\000\000\007\203\000\000\023\203\000\000\024\203\000\000\026\203\000\000!\203\000\000\'\203\000\0000\203\000\0004\203\000\000C\203\002\0007k\000\000T\203\000\000Y\203\002\000f\203\002\000k\203\000\000l\203\000\000r\203\000\000t\203\000\000{\203\000\000\200\203\000\000\204\203\000\000\207\203\000\000\226\203\002\000\247\203\002\000\260\203\002\000\272\203\002\000\275\203\000\000\303\203\000\000\306\203\000\000\312\203\002\000\314\203\000\000\316\203\000\000\317\203\002\000\356\203\000\000\357\203\000\000\360\203\000\000\370\203\000\000\007\204\000\000\010\204\002\000\023\204\000\000\035\204\002\000\037\204\000\000 \204\002\0007\204\000\0009\204\002\000:\204\000\000A\204\000\000F\204\000\000H\204\002\000I\204\000\000K\204\000\000R\204\002\000Z\204\000\000_\204\002\000f\204\000\000l\204\002\000n\204\002\000o\204\002\000q\204\000\000z\204\002\000}\204\000\000\207\204\002\000\212\204\002\000\217\204\002\000\222\204\000\000\223\204\002\000\227\204\002\000\230\204\002\000\232\204\002\000\242\204\000\000\246\204\002\000\250\204\000\000\254\204\002\000\262\204\002\000\263\204\002\000\265\204\000\000\267\204\000\000\270\204\002\000\272\204\000\000\275\204\002\000\277\204\002\000\300\204\002\000\307\204\000\000\322\204\000\000\350\204\000\000\360\204\002\000\362\204\002\000\367\204\000\000\371\204\002\000\376\204\000\000\t\205\000\000\n\205\002\000\013\205\000\000\014\205\000\000\016\205\002\000\017\205\002\000\032\205\000\000#\205\000\000)\205\002\000/\205\002\0000\205\000\0001\205\000\0005\205\002\0006\205\000\0009\205\000\000G\205\002\000U\205\000\000X\205\002\000\\\205\000\000_\205\000\000j\205\000\000l\205\002\000t\205\002\000\267\277\001\000\201\205\002\000\202\205\002\000\205\205\002\000\210\205\002\000\217\205\002\000\226\205\002\000\233k\002\000\244\205\000\000\245\205\002\000\250\205\002\000\253\205\002\000\264\205\002\000\265\205\002\000\266\205\000\000\270\205\002\000\276\205\002\000\300\205\002\000\305\205\000\000\306\205\002\000\311\205\000\000\312\205\002\000\314\205\002\000\321\205\000\000\322\205\002\000\334\205\002\000\336\205\000\000\357\205\002\000\364\205\002\000\374\205\000\000\017\206\002\000\027\206\000\000\037\206\002\000/\206\002\0001\206\002\000<\206\000\000=\206\000\000I\206\002\000J\206\002\000N\206\002\000O\206\000\000Y\206\000\000Z\206\000\000]\206\000\000d\206\002\000f\206\002\000\206\206\002\000\220\206\000\000\250\206\000\000\255\206\002\000\256\206\002\000\261\206\000\000\274\206\000\000\277\206\000\000\321\206\000\000\327\206\002\000\332\206\002\000\336\206\000\000\350\206\002\000\361\206\002\000\363\206\002\000\364\206\002\000\366\206\002\000\373\206\002\000\377\206\002\000\001\207\000\000\007\207\000\000\n\207\002\000\016\207\002\000\022\207\000\000\023\207\000\000\024\207\000\000\031\207\000\000\035\207\002\000 \207\000\000$\207\000\000+\207\000\0001\207\000\0003\207\002\0004\207\002\0008\207\002\000<\207\000\000>\207\002\000C\207\000\000E\207\002\000S\207\002\000U\207\000\000W\207\002\000a\207\002\000c\207\000\000e\207\002\000m\207\000\000p\207\000\000u\207\000\000v\207\002\000\215\207\000\000\224\207\002\000\231\207\002\000\237\207\002\000\256\207\002\000\235\026\003\000\271\207\002\000\275\207\002\000\301\207\002\000\315\207\002\000\330\207\000\000\336\207\000\000\337\207\002\000\344\207\002\000\246\026\002\000\351\207\002\000\354\207\000\000\355\207\002\000\363\207\000\000\365\207\002\000\367\207\002\000\370\207\002\000\373\207\000\000\374\207\000\000\375\207\000\000\000\210\002\000\005\210\000\000\014\210\002\000\032\210\000\000&\210\002\000)\210\000\000-\210\002\000/\210\002\0000\210\000\0004\210\000\000@\210\000\000A\210\000\000N\210\002\000R\210\002\000T\210\000\000V\210\000\000X\210\002\000Y\210\000\000[\210\002\000b\210\002\000j\210\002\000m\210\000\000s\210\000\000u\210\002\000y\210\002\000\210\210\000\000\213\210\000\000\215\210\000\000\216\210\000\000\226\210\002\000\227\210\000\000\230\210\000\000\235\210\002\000\243\210\000\000\246\210\002\000\251\210\002\000\260\210\000\000\262\210\002\000\264\210\002\000\271\210\000\000\273\210\000\000\274\210\002\000\320\210\002\000\326\210\002\000\334\210\000\000\336\210\000\000\337\210\000\000\352\210\002\000\353\210\000\000\360\210\002\000\367\210\002\000\370\210\002\000\372\210\002\000\375\210\000\000\376\210\002\000\005\211\000\000\014\211\000\000\021\211\000\000\022\211\000\000\024\211\000\000\032\211\000\000\033\211\000\000\036\211\000\000\037\211\002\000#\211\000\0002\211\002\0004\211\000\000D\211\000\000\322\024\003\000T\211\000\000V\211\000\000^\211\000\000d\211\000\000l\211\000\000m\211\002\000|\211\002\000\201\211\002\000\202\211\002\000\206\211\000\000\216\211\000\000\217\211\000\000\223\211\000\000\236\211\002\000\244\211\002\000\254\211\000\000\255\211\002\000\257\211\002\000\261\211\000\000\272\211\000\000\274\211\000\000\277\211\002\000\301\211\002\000\302\211\000\000\305\211\002\000\311\211\000\000\313\211\002\000\335\211\000\000\341\211\002\000\346\211\000\000\347\211\000\000\355\211\002\000\361\211\000\000\365\211\002\000\370\211\000\000\372\211\000\000\373\211\002\000\376\211\000\000\000\212\002\000\003\212\000\000\r\212\000\000\025\212\000\000\026\212\000\000\030\212\002\000#\212\000\000(\212\000\000-\212\000\000.\212\000\000/\212\002\0001\212\002\0009\212\002\000:\212\000\000?\212\002\000B\212\002\000C\212\002\000D\212\000\000E\212\000\000H\212\002\000K\212\000\000L\212\000\000N\212\000\000O\212\002\000Q\212\002\000U\212\002\000W\212\002\000X\212\002\000`\212\002\000d\212\002\000e\212\000\000f\212\002\000o\212\002\000r\212\002\000~\212\002\000\301\301\002\000\217\212\002\000\237\212\000\000\240\212\000\000\242\212\000\000\246\212\000\000\252\212\002\000\255\212\002\000\265\212\002\000\266\212\002\000\271\212\000\000\274\212\000\000\276\212\000\000\301\212\002\000\304\212\000\000\305\212\002\000\306\212\000\000\310\212\002\000\322\212\002\000\323\212\000\000\327\212\002\000\342\212\000\000\343\212\000\000\352\212\000\000\354\212\000\000\357\212\000\000\361\212\000\000\365\212\000\000\367\212\000\000\371\212\000\000\374\212\000\000\001\213\000\000\006\213\000\000\t\213\002\000\031\213\000\000\"\213\000\0000\213\000\000;\213\000\000C\213\000\000H\213\002\000J\213\002\000K\213\002\000L\213\000\000M\213\000\000N\213\002\000P\213\000\000W\213\002\000X\213\002\000b\213\000\000f\213\000\000g\213\000\000k\213\002\000p\213\000\000q\213\000\000s\213\000\000\206\213\002\000\210\213\002\000\212\213\000\000\221\213\002\000\226\213\000\000\235\213\000\000\236\213\000\000\244\213\000\000\247\213\002\000\263\213\002\000\274\213\000\000\301\213\000\000\307\213\002\000\316\213\000\000\323\213\002\000\324\213\000\000\326\213\000\000\330\213\000\000\353\213\002\000\355\213\000\000\356\213\002\000\363\213\000\000\366\213\002\000\367\213\002\000\377\213\000\000\003\214\002\000\004\214\002\000\010\214\000\000\017\214\002\000\022\214\000\000$\214\002\000\'\214\000\000*\214\000\000+\214\000\000/\214\002\0005\214\000\000F\214\000\000S\214\000\000X\214\002\000a\214\000\000c\214\000\000i\214\002\000k\214\000\000m\214\002\000p\214\000\000r\214\000\000t\214\000\000u\214\002\000|\214\000\000\215\214\000\000\226\214\000\000\236\214\002\000\240\214\000\000\241\214\000\000\245\214\000\000\251\214\000\000\252\214\002\000\260\214\000\000\320\214\000\000\323\214\000\000\342\214\000\000\357\214\000\000\361\214\000\000\324l\000\000\374\214\000\000\002\215\000\000$\215\000\000&\215\000\000(\215\000\000.\215\002\0003\215\002\0008\215\002\000=\215\000\000\230Y\000\000C\215\000\000G\215\000\000I\215\000\000Q\215\000\000\\\215\002\000]\215\000\000_\215\000\000y\215\000\000{\215\002\000\203\215\002\000\213\215\002\000\220\215\002\000\236\215\000\000\244\215\002\000\246\215\000\000\251\215\000\000\252\215\000\000\253\215\000\000\255\215\000\000\236\027\002\000\271\215\002\000\311\215\000\000\315\215\002\000\316\215\002\000\320\215\002\000\323\215\000\000\330\215\002\000\332\215\000\000\343\215\002\000\351\215\002\000\353\215\002\000\356\215\002\000\373\215\002\000\377\215\002\000\000\216\000\000\005\216\000\000\r\216\002\000\016\216\002\000\017\216\000\000\022\216\000\000\035\216\000\000\036\216\002\000\037\216\002\000&\216\002\000\'\216\000\0006\216\002\000<\216\000\000A\216\000\000C\216\002\000O\216\002\000Y\216\002\000b\216\002\000h\216\002\000j\216\002\000\275\027\002\000s\216\000\000v\216\000\000}\216\002\000~\216\002\000\210\216\002\000\215\216\002\000\222\216\000\000\223\216\000\000\231\216\002\000\236\216\002\000\251\216\002\000\267\216\002\000\277\216\002\000\302\216\000\000\303\216\000\000\304\216\000\000\305\216\000\000\310\216\000\000\312\216\002\000\315\216\002\000\323\216\002\000\342\216\002\000\355\216\002\000\357\216\002\000\360\216\002\000\361\216\000\000\362\216\002\000\364\216\002\000\370\216\002\000\372\216\002\000\375\216\002\000\002\217\000\000\010\217\002\000\013\217\000\000\017\217\002\000\020\217\000\000\022\217\000\000\031\217\000\000\034\217\002\000\037\217\002\000&\217\000\0006\217\000\000J\217\000\000T\217\002\000W\217\000\000`\217\000\000l\217\000\000n\217\000\000r\217\000\000w\217\000\000x\217\000\000\201\217\000\000\215\217\002\000\217\217\000\000\220\217\002\000\236\217\000\000\256\217\000\000\264\217\002\000\310\217\000\000\311\217\002\000\327\217\002\000\330\217\000\000\341\217\000\000\343\217\000\000\345\217\000\000\352\217\000\000\371\217\000\000\007\220\000\000\t\220\002\000\020\220\000\000\"\220\000\000)\220\000\000.\220\000\0000\220\000\0003\220\002\0005\220\000\0009\220\000\000wH\002\000F\220\000\000H\220\000\000K\220\002\000N\220\000\000R\220\000\000W\220\002\000X\220\000\000i\220\000\000p\220\000\000r\220\000\000u\220\000\000\177\220\000\000\213\220\000\000\230\220\000\000\244\220\000\000\251\220\000\000\256\220\000\000\260\220\002\000\263\220\000\000\270\220\000\000\311\220\000\000\321\220\000\000\326\220\000\000\333\220\002\000\335\220\000\000\340\220\000\000\347\220\000\000\356\220\000\000\360\220\000\000\364\220\000\000\377\220\000\000\025\221\000\000\026\221\000\000\037\221\000\000 \221\000\0002\030\003\0000\221\000\0003\221\002\0009\221\000\000;\221\000\000H\221\000\000N\221\002\000Q\221\000\000X\221\000\000Y\221\000\000k\221\002\000u\221\000\000y\221\000\000\201\221\000\000\206\221\000\000\211\221\000\000\216\221\002\000\235\221\000\000\237\221\000\000\246\221\002\000\262\221\002\000\267\221\000\000\272\221\000\000\274\221\000\000\311\221\000\000\332\221\000\000\334\221\002\000\343\221\000\000\346\221\000\000\350\221\000\000\352\221\002\000\353\221\000\000\357\221\000\000\363\221\000\000\367\221\000\000\373\221\002\000\376\221\002\000\001\222\000\000\003\222\002\000\014\222\000\000#\222\000\000%\222\002\000\'\222\002\000)\222\000\000*\222\002\000.\222\002\000<\222\000\000=\222\002\000>\222\002\000?\222\002\000D\222\002\000G\222\000\000b\030\003\000_\222\002\000e\222\002\000k\222\000\000m\222\002\000q\222\000\000s\222\000\000t\222\002\000w\222\000\000z\222\000\000~\222\000\000\200\222\002\000\207\222\002\000\211\222\002\000\221\222\002\000\226\222\000\000o\030\000\000\234\222\002\000\240\222\002\000\243\222\000\000\244\222\002\000\271\222\000\000\273\222\002\000\312m\002\000\300\222\000\000\302\222\002\000\315\222\002\000\323\222\002\000\324\222\002\000\333\222\000\000\352\222\002\000\374\222\002\000\003\223\002\000\017\223\000\000\025\223\000\000\'\223\002\0001\223\002\0006\223\000\0007\223\002\000?\223\000\000]\223\002\000o\223\002\000q\223\002\000r\223\002\000\203\223\002\000\224\223\002\000\226\223\002\000\231\223\002\000\236\223\000\000\243\223\000\000\251\223\002\000\257\223\002\000\262\223\002\000\266\223\002\000\273\223\002\000\275\223\000\000\307\223\000\000\311\223\002\000\314\223\000\000\321\223\002\000\333\223\002\000\334\223\002\000\347\223\000\000\350\223\002\000\352\223\002\000\354\223\002\000\361\223\002\000\372\223\002\000\000\224\000\000\003\224\000\000\010\224\000\000\r\224\000\000\025\224\002\000 \224\002\000-\224\002\0000\224\000\0005\224\002\0008\224\002\000:\224\000\000;\224\002\000?\224\002\000E\224\002\000K\224\002\000Q\224\002\000U\224\002\000^\224\002\000a\224\002\000c\224\000\000\021n\002\000k\224\000\000m\224\002\000n\224\002\000p\224\002\000v\224\000\000z\224\000\000{\224\002\000|\224\002\000\202\224\000\000\212\224\000\000\214\224\002\000\226\224\002\000\227\224\002\000\233\224\002\000\241\224\002\000\242\224\000\000\253\224\002\000\256\224\002\000\261\224\002\000\272\224\002\000\276\224\000\000\306\224\000\000\310\224\000\000\317\224\002\000\320\224\002\000\323\224\002\000\336\224\002\000\347\224\000\000\360\224\002\000\363\224\000\000\371\224\000\000*n\000\000\016\225\000\000\022\225\000\000\037\225\002\000*\225\002\0001\225\002\0009\225\002\000?\225\002\000E\225\002\000T\225\002\0009n\000\000\\\225\002\000]\225\002\000_\225\000\000`\225\002\000b\225\002\000w\225\000\000z\225\000\000|\225\002\000\204\225\000\000\356\030\003\000\226\225\000\000\233\225\000\000\236\225\000\000\243\225\002\000\251\225\002\000\252\225\000\000\254\225\002\000\265\225\002\000\266\225\002\000\267\225\002\000\305\225\002\000\316\225\000\000\321\225\000\000\371\030\003\000\330\225\002\000\335\225\002\000\340\225\000\000\344\225\000\000\354\225\002\000\356\225\000\000\357\225\002\000\003\226\002\000\006\226\002\000\013\226\000\000\020\226\002\000\030\226\000\000\031\226\000\000!\226\000\0000\226\000\0001\226\002\0005\226\002\0008\226\000\000:\226\002\000<\226\002\000>\226\002\000A\226\002\000H\226\002\000M\226\002\000P\226\000\000U\226\000\000W\226\002\000d\226\000\000m\226\002\000n\226\000\000o\226\000\000p\226\000\000\220\226\000\000nn\000\000\234\226\000\000\235\226\000\000\241\226\000\000\243\226\000\000\246\226\000\000\301\226\002\000\307\226\000\000\312\226\000\000\321\226\000\000\322\226\000\000\335\226\002\000\337\226\000\000\347\226\000\000\350\226\000\000\351\226\000\000S&\003\000\365\226\000\000\001\227\000\000\010\227\000\000\r\227\000\000 \227\000\000#\227\000\000)\227\000\000*\227\000\000+\227\000\0006\227\002\0007\227\000\0008\227\002\000=\227\000\000@\227\002\000O\227\000\000U\227\002\000X\227\000\000`\227\000\000a\227\002\000b\227\000\000d\227\002\000g\227\002\000s\227\000\000\211\227\002\000\233\227\000\000\234\227\000\000\243\227\000\000\273\227\000\000\300\227\002\000\314\227\000\000\323\227\000\000\330\227\002\000\337\227\002\000\367\227\000\000\370\227\000\000\374\227\000\000\002\230\000\000\005\230\002\000\013\230\002\000\016\230\002\000\020\230\002\000\256n\000\000#\230\000\000%\230\000\000\'\230\000\0000\230\000\0003\230\002\0007\230\000\000T\230\002\000V\230\000\000\271n\000\000]\230\000\000k\230\002\000l\230\002\000\206\230\002\000\207\230\002\000\223\230\000\000\224\230\000\000\226\230\002\000\232\230\002\000\234\230\002\000\235\230\000\000\241\230\002\000\242\230\002\000\245\230\002\000\250\230\000\000\251\230\002\000\261\230\002\000\266\230\002\000t\031\003\000\302\230\002\000\303\230\000\000\306\230\002\000\310\230\002\000\316\230\002\000\320\230\000\000\323\230\000\000\334\230\000\000\340\230\000\000\351\230\000\000\356\230\002\000\361\230\002\000\362\230\002\000\365\230\002\000\366\230\000\000\370\230\000\000\373\230\002\000\002\231\002\000\003\231\000\000\004\231\002\000\014\231\000\000\022\231\002\000\023\231\002\000\025\231\002\000\026\231\002\000\035\231\002\000\'\231\000\0002\231\002\0008\231\000\0009\231\000\000?\231\000\000J\231\002\000\215\031\003\000R\231\000\000X\231\002\000Y\231\002\000a\231\002\000g\231\002\000k\231\000\000v\231\000\000w\231\000\000{\231\000\000\201\231\002\000\204\231\002\000\206\231\002\000\207\231\000\000\216\231\002\000\217\231\002\000\225\231\002\000\236\231\002\000\244\231\002\000\245\231\000\000\251\231\000\000\255\231\000\000\256\231\000\000\261\231\000\000\263\231\002\000\265\231\002\000\267\231\000\000\276\231\000\000\305\231\000\000\312\231\000\000\314\231\000\000\315\231\002\000\327\231\000\000\331\231\002\000\342\231\000\000\350\231\000\000\354\231\000\000\250\031\003\000\362\231\000\000\364\231\000\000\367\231\002\000\377\231\002\000\014\232\000\000\020\232\002\000\021\232\002\000\025\232\000\000+\232\002\000/\232\002\0002\232\000\000@\232\002\000C\232\000\000J\232\002\000N\232\002\000Y\232\000\000_\232\000\000a\232\000\000e\232\002\000f\232\000\000g\232\000\000q\232\002\000r\232\002\000i\304\001\000{\232\000\000\200\232\002\000\201\232\000\000\213\232\000\000\226\232\000\000\230\232\002\000\234\232\002\000\235\232\002\000\236\232\000\000\240\232\002\000\241\232\002\000\256\232\000\000\257\232\002\000\262\232\000\000\263\232\002\000\264\232\000\000\274\232\000\000\301\232\000\000\302\232\000\000\304\232\002\000\307\232\000\000\310\232\000\000\312\232\000\000\313\232\000\000\330\232\000\000\336\232\000\000\337\232\000\000\340\232\000\000\001\233\000\000\006\233\002\000\007\233\002\000\013\233\002\000\031\233\002\000\033\233\002\000\034\233\002\000(\233\000\0002\233\002\0003\233\000\0006\233\002\000<\233\002\000B\233\002\000J\233\000\000Q\233\000\000]\233\002\000h\233\002\000j\233\002\000o\233\000\000q\233\002\000{\233\000\000\210\233\002\000\211\233\002\000\213\233\000\000\222\233\002\000\224\233\002\000\230\233\000\000\233\233\002\000Eo\000\000\245\233\002\000\250\233\002\000\252\233\002\000\256\233\002\000\262\233\002\000\263\233\002\000\322\233\002\000\325\233\002\000\330\233\000\000\210|\000\000\372\031\002\000\341\233\002\000\345\233\000\000\347\233\000\000\351\233\000\000\362\233\000\000\365\233\000\000\376\233\002\000\000\234\000\000\001\234\000\000\002\234\002\000\004\234\002\000\023\234\000\000\027\234\002\000\030\234\002\000\031\234\002\000#\234\002\000%\234\000\000)\234\000\000-\234\000\0001\234\000\0004\234\002\0007\234\000\0008\234\000\0009\234\002\000:\234\000\000;\234\002\000C\234\002\000G\234\000\000L\234\000\000Z\234\002\000[\234\002\000\\\234\002\000a\234\000\000e\234\000\000g\234\000\000i\234\002\000l\234\000\000z\234\002\000}\234\000\000~\234\002\000\203\234\002\000\212\234\000\000\221\234\000\000\222\234\000\000\235\234\000\000\252\234\002\000\255\234\000\000\264\234\002\000\265\234\002\000\300\234\002\000\303\234\000\000\306\234\002\000\311\234\002\000\312\234\002\000\315\304\002\000\320\234\000\000\331\234\002\000\355\234\002\000\371\234\000\000\006\235\000\000\010\235\000\000\r\235\000\000\027\235\000\000\031\235\002\000\037\235\000\000$\235\000\000\'\235\002\000(\235\002\000)\235\000\000/\235\002\0001\235\002\0005\235\002\0007\235\002\000;\235\002\000=\235\002\000?\235\002\000@\235\000\000A\235\002\000E\235\000\000H\235\002\000M\235\002\000R\235\002\000S\235\000\000W\235\002\000X\235\000\000Y\235\002\000[\235\000\000_\235\000\000i\235\002\000j\235\002\000n\235\000\000o\235\002\000p\235\002\000{\235\000\000}\235\000\000\206\235\000\000\215\235\000\000\221\235\002\000\223\235\002\000\226\235\002\000\230\235\000\000\231\235\000\000\236\235\002\000\244\235\002\000\247\235\002\000\250\235\002\000\262\235\002\000\263\235\002\000\265\235\002\000\266\235\000\000\267\235\000\000\272\235\002\000\275\235\000\000\277\235\002\000\306\235\002\000\311\235\000\000\315\235\002\000\320\235\000\000\330\235\000\000\336\235\000\000\337\235\000\000\341\235\000\000\343\235\000\000\345\235\002\000\346\235\002\000\347\235\002\000\351\235\002\000\357\235\000\000\361\235\000\000\363\235\002\000\377\304\002\000\374\235\000\000\376\235\002\000\377\235\002\000\000\236\002\000\003\236\000\000\013\236\002\000\014\236\002\000\017\236\002\000\020\236\000\000\022\236\000\000\025\236\002\000\026\236\002\000\027\236\002\000\034\236\002\000\035\236\000\000\037\236\002\000 \236\002\000!\236\002\000%\236\002\000)\236\002\000*\236\002\000+\236\002\000-\236\002\000.\236\002\0000\236\002\0004\236\002\0005\236\002\0009\236\002\000:\236\002\000;\236\002\000D\236\002\000N\236\000\000S\236\002\000Z\236\002\000_\236\000\000f\236\000\000i\236\000\000n\236\002\000o\236\000\000p\236\002\000u\236\002\000z\236\002\000\200\236\000\000\203\236\000\000\301o\000\000\216\236\000\000\217\236\000\000\223\236\000\000\225\236\002\000\230\236\000\000\237\236\000\000\242\236\000\000\243\236\000\000\247\236\000\000\254\236\000\000\257\236\000\000\267\236\000\000\271\236\000\000\272\236\000\000\276\236\000\000\300\236\002\000\304\236\000\000\306\236\002\000\316\236\002\000\325\236\000\000\327\236\000\000\341\236\000\000\346\236\000\000\347\236\000\000\350\236\000\000\353\236\002\000\354\236\002\000\355\236\002\000\361\236\000\000\362\236\002\000\365\236\000\000\370\236\000\000\371\236\000\000\372\236\000\000\374\236\000\000\003\237\000\000\004\237\000\000\006\237\002\000\016\237\002\000\020\237\000\000\021\237\000\000\024\237\002\000\027\237\000\000\031\237\000\000\032\237\000\000\036\237\000\000\037\237\000\000&\237\000\000)\237\002\000D\237\000\000E\237\002\000G\237\002\000X\237\002\000\\\237\000\000^\237\000\000b\237\000\000j\237\000\000m\237\000\000t\237\000\000u\237\000\000w\237\000\000x\237\000\000|\237\002\000\202\237\000\000\203\237\002\000\207\237\002\000\210\237\000\000\211\237\000\000\215\237\002\000\216\237\000\000\220\237\000\000\221\237\000\000\225\237\002\000\227\237\000\000\230\237\000\000\235\237\000\000\240\237\000\000\250\237\002\000\252\237\000\000\255\237\002\000\262\237\000\000-)\003\000\273\237\000\000\274\237\002\000\310\237\000\000\323\237\000\000\354\237\000\000\355\237\002\000\361\237\000\000\364\237\002\000\366\237\002\000\370\237\000\000\373\237\000\000\375\237\000\000\005\240\000\000%\240\002\000&\240\002\000.\240\002\0000\240\002\000?\240\000\000B\240\000\000E\240\000\000I\240\002\000K\240\002\000P\240\000\000U\240\002\000V\240\002\000X\240\002\000`\240\000\000e\240\002\000g\240\002\000i\240\002\000l\240\000\000m\240\002\000t\240\002\000u\240\000\000w\240\002\000x\240\000\000~\240\002\000\211\240\002\000\215\240\002\000\225\240\002\000\232\240\002\000\235\240\000\000\237\240\002\000\245\240\000\000\246\240\002\000\251\240\002\000\261\240\000\000\274\240\002\000\301\240\002\000\303\240\002\000\312\240\002\000\317\240\000\000\320\240\002\000\333\240\000\000\336\240\002\000\340\240\002\000\342\240\002\000\351\240\002\000\361\240\000\000\362\240\002\000\363\240\000\000\374\240\000\000\376\240\000\000\377\240\002\000\002\241\000\000\016\241\002\000\035\241\002\000 \241\002\000!\241\002\000$\241\002\000%\241\002\000&\241\002\000.\241\002\0000\241\002\000\336\032\003\0009\241\002\000<\241\002\000D\241\000\000H\241\000\000O\241\000\000Q\241\000\000S\241\002\000T\241\002\000V\241\002\000W\241\000\000Y\241\002\000a\241\002\000d\241\002\000e\241\002\000m\241\000\000r\241\000\000w\241\002\000{\241\002\000\201\241\002\000\212\241\000\000\250\241\000\000\266\241\002\000\271\241\000\000\272\241\000\000\274\241\002\000\315\241\000\000\321\241\002\000\351\241\000\000\371\241\002\000\372\241\000\000\376\241\000\000\037\242\000\000;\242\000\000G\242\002\000M\242\000\000P\242\002\000R\242\000\000S\242\002\000T\242\002\000[\242\000\000_\242\002\000b\242\002\000h\242\002\000m\242\000\000r\242\002\000s\242\000\000u\242\002\000\177\242\002\000\201\242\000\000\206\242\002\000\030\033\003\000\227\242\002\000\230\242\002\000\233\242\002\000\234\242\002\000\236\242\000\000\240\242\000\000\242\242\002\000\244\242\002\000\250\242\002\000\253\242\000\000\256\242\000\000\257\242\000\000\262\242\000\000\264\242\000\000\265\242\002\000\267\242\002\000\271\242\000\000\303\242\002\000\305\242\000\000\317\242\002\000\320\242\000\000\324\242\000\000\327\242\002\000\333\242\000\000\340\242\002\000\342\242\002\000\355\242\002\000\363\242\000\000\376\242\002\000\r\243\002\000\022\243\002\000\031\243\002\000\032\243\000\000\033\243\002\000\036\243\000\000#\243\002\000(\243\002\000)\243\000\000+\243\002\000-\243\000\0005\033\003\000A\243\002\000D\243\000\000F\243\002\000M\243\000\000Q\243\000\000T\243\000\000U\243\000\000W\243\000\000Z\243\002\000^\243\000\000a\243\002\000f\243\002\000=\033\003\000p\243\000\000q\243\002\000v\243\000\000{\243\000\000\201\243\000\000\203\243\000\000\204\243\000\000\211\243\002\000\223\243\002\000\232\243\000\000\244\243\000\000\247\243\002\000\250\243\000\000\253\243\000\000H\033\003\000\263\243\000\000\267\243\000\000\270\243\000\000\275\243\002\000\300\243\000\000\302\243\002\000\303\243\000\000\307\243\000\000\310\243\000\000\314\243\000\000\325\243\000\000\326\243\002\000\332\243\002\000\333\243\000\000\336\243\000\000\337\243\000\000\344\243\000\000\354\243\002\000\356\243\002\000\360\243\000\000\365\243\000\000\376\243\000\000\006\244\002\000\010\244\002\000\t\244\002\000\013\244\002\000\021\244\002\000\026\244\002\000\030\244\002\000\031\244\002\000\032\244\000\000\033\244\000\000Z\033\003\000\037\244\002\000#\244\000\000(\244\002\000)\244\002\0005\244\000\000?\244\000\000@\244\002\000A\244\002\000R\244\002\000T\244\002\000X\244\002\000^\244\000\000_\244\002\000h\244\000\000i\244\002\000q\244\000\000w\244\000\000x\244\000\000}\244\002\000~\244\000\000\200\244\000\000\210\244\002\000\220\244\000\000\221\244\002\000\225\244\000\000\234\244\002\000\306p\000\000\250\244\000\000\255\244\002\000\270\244\002\000\274\244\000\000\277\244\002\000\300\244\000\000\307\244\002\000\313\244\000\000\314\244\002\000\322\244\000\000\324\244\002\000\326\244\002\000\330\244\002\000\341\244\000\000\351\244\000\000\355\244\000\000\360\244\000\000\014\245\000\000\020\245\000\000\022\245\000\000*\245\000\000,\245\000\0005\245\000\000A\245\000\000C\245\000\000K\245\000\000S\245\000\000f\245\000\000k\245\000\000~\245\002\000\203\245\000\000\205\245\000\000\213\245\002\000\217\245\002\000\224\245\002\000\232\245\000\000\233\245\002\000\253\245\002\000\261\245\000\000\263\245\002\000\267\245\000\000\315\245\002\000\324\245\002\000\334\245\000\000\341\245\002\000\342\245\000\000\344\245\000\000\345\245\002\000\355\245\002\000\361\245\000\000\364\245\002\000\365\245\002\000\367\245\000\000\377\245\000\000\001\246\002\000\002\246\000\000\003\246\000\000\014\246\002\000\026\246\000\000\027\246\002\000\"\246\002\000#\246\000\000/\246\002\000;\246\000\000C\246\002\000H\246\000\000W\246\000\000Z\246\000\000[\246\000\000\\\246\000\000j\246\000\000s\246\000\000w\246\002\000z\246\000\000\177\246\000\000\202\246\000\000\210\246\000\000\211\246\000\000\212\246\000\000\217\246\000\000\231\246\002\000\244\246\002\000\245\246\000\000r\306\002\000\306\246\000\000\314\246\000\000\321\246\000\000\325\246\002\000\327\246\000\000\330\246\002\000\332\246\000\000\333\246\000\000\343\246\000\000\355\246\002\000\370\246\000\000\371\246\002\000\006\247\000\000\010\247\002\000\t\247\002\000\013\247\002\000\020\247\000\000!\247\000\000#\247\002\000/\247\000\000>\247\000\000J\247\000\000N\247\000\000W\247\000\000X\247\002\000Z\247\000\000\345\033\003\000e\247\000\000k\247\000\000n\247\002\000o\247\000\000t\247\002\000u\247\002\000z\247\000\000{\247\002\000~\247\002\000\226\247\000\000\233\247\000\000\235\247\000\000\237\247\000\000\241\247\000\000\243\247\000\000\245\247\002\000\267\247\002\000\271\247\000\000\272\247\000\000\275\247\002\000\305\247\000\000\316\247\000\000\322\247\002\000\323\247\000\000\334\247\000\000\361\247\000\000\365\247\000\000\367\247\002\000\375\247\000\000\000\250\002\000\005\250\002\000\010\250\000\000\002\034\003\000\026\250\000\000!\250\000\000,